/* Copyright (c) Mark Harmstone 2024
 *
 * This file is part of tdscpp.
 *
 * tdscpp is free software: you can redistribute it and/or modify
 * it under the terms of the GNU Lesser General Public Licence as published by
 * the Free Software Foundation, either version 3 of the Licence, or
 * (at your option) any later version.
 *
 * tdscpp is distributed in the hope that it will be useful,
 * but WITHOUT ANY WARRANTY; without even the implied warranty of
 * MERCHANTABILITY or FITNESS FOR A PARTICULAR PURPOSE.  See the
 * GNU Lesser General Public Licence for more details.
 *
 * You should have received a copy of the GNU Lesser General Public Licence
 * along with tdscpp.  If not, see <http://www.gnu.org/licenses/>. */

#include "tdscpp.h"

using namespace std;

static const uint32_t weights[] = {
    0x00000000, 0x06030202, 0x06040202, 0x06050202, 0x06060202, 0x06070202, 0x06080202, 0x06090202,
    0x060a0202, 0x07050202, 0x07060202, 0x07070202, 0x07080202, 0x07090202, 0x060b0202, 0x060c0202,
    0x060d0202, 0x060e0202, 0x060f0202, 0x06100202, 0x06110202, 0x06120202, 0x06130202, 0x06140202,
    0x06150202, 0x06160202, 0x06170202, 0x06180202, 0x06190202, 0x061a0202, 0x061b0202, 0x061c0202,
    0x07020202, 0x071c0202, 0x071d0202, 0x071f0202, 0x07210202, 0x07230202, 0x07250202, 0x06800202,
    0x07270202, 0x072a0202, 0x072d0202, 0x08030202, 0x072f0202, 0x06820202, 0x07330202, 0x07350202,
    0x0c030202, 0x0c210202, 0x0c330202, 0x0c460202, 0x0c580202, 0x0c6a0202, 0x0c7d0202, 0x0c900202,
    0x0ca20202, 0x0cb40202, 0x07370202, 0x073a0202, 0x080e0202, 0x08120202, 0x08140202, 0x073c0202,
    0x073e0202, 0x0e020212, 0x0e090212, 0x0e0a0212, 0x0e1a0212, 0x0e210212, 0x0e230212, 0x0e250212,
    0x0e2c0212, 0x0e320212, 0x0e350212, 0x0e360212, 0x0e480212, 0x0e510212, 0x0e700212, 0x0e7c0212,
    0x0e7e0212, 0x0e890212, 0x0e8a0212, 0x0e910212, 0x0e990212, 0x0e9f0212, 0x0ea20212, 0x0ea40212,
    0x0ea60212, 0x0ea70212, 0x0ea90212, 0x073f0202, 0x07410202, 0x07420202, 0x07430202, 0x07440202,
    0x07480202, 0x0e020202, 0x0e090202, 0x0e0a0202, 0x0e1a0202, 0x0e210202, 0x0e230202, 0x0e250202,
    0x0e2c0202, 0x0e320202, 0x0e350202, 0x0e360202, 0x0e480202, 0x0e510202, 0x0e700202, 0x0e7c0202,
    0x0e7e0202, 0x0e890202, 0x0e8a0202, 0x0e910202, 0x0e990202, 0x0e9f0202, 0x0ea20202, 0x0ea40202,
    0x0ea60202, 0x0ea70202, 0x0ea90202, 0x074a0202, 0x074c0202, 0x074e0202, 0x07500202, 0x061d0202,
    0x061e0202, 0x061f0202, 0x06200202, 0x06210202, 0x06220202, 0x06230202, 0x06240202, 0x06250202,
    0x06260202, 0x06270202, 0x06280202, 0x06290202, 0x062a0202, 0x062b0202, 0x062c0202, 0x062d0202,
    0x062e0202, 0x062f0202, 0x06300202, 0x06310202, 0x06320202, 0x06330202, 0x06340202, 0x06350202,
    0x06360202, 0x06370202, 0x06380202, 0x06390202, 0x063a0202, 0x063b0202, 0x063c0202, 0x063d0202,
    0x07040202, 0x07510202, 0x0a020202, 0x0a030202, 0x0a040202, 0x0a050202, 0x07520202, 0x0a060202,
    0x07530202, 0x0a070202, 0x0e02030e, 0x08180202, 0x0a080202, 0x06830202, 0x0a090202, 0x07540202,
    0x0a0a0202, 0x08170202, 0x0c33020e, 0x0c46020e, 0x07550202, 0x0a0b0202, 0x0a0c0202, 0x0a0d0202,
    0x07560202, 0x0c21020e, 0x0e7c030e, 0x081a0202, 0x0c150202, 0x0c190202, 0x0c1d0202, 0x07570202,
    0x0e020f12, 0x0e020e12, 0x0e021212, 0x0e021912, 0x0e021312, 0x0e021a12, 0x02000000, 0x0e0a1c12,
    0x0e210f12, 0x0e210e12, 0x0e211212, 0x0e211312, 0x0e320f12, 0x0e320e12, 0x0e321212, 0x0e321312,
    0x0e1a6812, 0x0e701912, 0x0e7c0f12, 0x0e7c0e12, 0x0e7c1212, 0x0e7c1912, 0x0e7c1312, 0x081c0202,
    0x0e7c2112, 0x0e9f0f12, 0x0e9f0e12, 0x0e9f1212, 0x0e9f1312, 0x0ea70e12, 0x02020000, 0x02030000,
    0x0e020f02, 0x0e020e02, 0x0e021202, 0x0e021902, 0x0e021302, 0x0e021a02, 0x02040000, 0x0e0a1c02,
    0x0e210f02, 0x0e210e02, 0x0e211202, 0x0e211302, 0x0e320f02, 0x0e320e02, 0x0e321202, 0x0e321302,
    0x0e1a6802, 0x0e701902, 0x0e7c0f02, 0x0e7c0e02, 0x0e7c1202, 0x0e7c1902, 0x0e7c1302, 0x081d0202,
    0x0e7c2102, 0x0e9f0f02, 0x0e9f0e02, 0x0e9f1202, 0x0e9f1302, 0x0ea70e02, 0x02060000, 0x0ea71302,
    0x0e021712, 0x0e021702, 0x0e021512, 0x0e021502, 0x0e021b12, 0x0e021b02, 0x0e0a0e12, 0x0e0a0e02,
    0x0e0a1212, 0x0e0a1202, 0x0e0a1012, 0x0e0a1002, 0x0e0a1412, 0x0e0a1402, 0x0e1a1412, 0x0e1a1402,
    0x0e1a1e12, 0x0e1a1e02, 0x0e211712, 0x0e211702, 0x0e211512, 0x0e211502, 0x0e211012, 0x0e211002,
    0x0e211b12, 0x0e211b02, 0x0e211412, 0x0e211402, 0x0e251212, 0x0e251202, 0x0e251512, 0x0e251502,
    0x0e251012, 0x0e251002, 0x0e251c12, 0x0e251c02, 0x0e2c1212, 0x0e2c1202, 0x0e2c1e12, 0x0e2c1e02,
    0x0e321912, 0x0e321902, 0x0e321712, 0x0e321702, 0x0e321512, 0x0e321502, 0x0e321b12, 0x0e321b02,
    0x0e321012, 0x0e320302, 0x02070000, 0x02080000, 0x0e351212, 0x0e351202, 0x0e361c12, 0x0e361c02,
    0x0e360302, 0x0e480e12, 0x0e480e02, 0x0e481c12, 0x0e481c02, 0x0e481412, 0x0e481402, 0x0e481112,
    0x0e481102, 0x0e481f12, 0x0e481f02, 0x0e700e12, 0x0e700e02, 0x0e701c12, 0x0e701c02, 0x0e701412,
    0x0e701402, 0x0e704802, 0x0e740212, 0x0e740202, 0x0e7c1712, 0x0e7c1702, 0x0e7c1512, 0x0e7c1502,
    0x0e7c1d12, 0x0e7c1d02, 0x02090000, 0x020a0000, 0x0e8a0e12, 0x0e8a0e02, 0x0e8a1c12, 0x0e8a1c02,
    0x0e8a1412, 0x0e8a1402, 0x0e910e12, 0x0e910e02, 0x0e911212, 0x0e911202, 0x0e911c12, 0x0e911c02,
    0x0e911412, 0x0e911402, 0x0e991c12, 0x0e991c02, 0x0e991412, 0x0e991402, 0x0e9e1e12, 0x0e9e1e02,
    0x0e9f1912, 0x0e9f1902, 0x0e9f1712, 0x0e9f1702, 0x0e9f1512, 0x0e9f1502, 0x0e9f1a12, 0x0e9f1a02,
    0x0e9f1d12, 0x0e9f1d02, 0x0e9f1b12, 0x0e9f1b02, 0x0ea41212, 0x0ea41202, 0x0ea71212, 0x0ea71202,
    0x0ea71312, 0x0ea90e12, 0x0ea90e02, 0x0ea91012, 0x0ea91002, 0x0ea91412, 0x0ea91402, 0x0e960202,
    0x0e091e02, 0x0e094312, 0x0e096812, 0x0e096802, 0x0e098712, 0x0e098702, 0x0e0a7d12, 0x0e0a4312,
    0x0e0a4302, 0x0e1b0412, 0x0e1a4312, 0x0e1a1e12, 0x0e1a1e02, 0x0e1a7c02, 0x0e217d12, 0x0e217e12,
    0x0e217b12, 0x0e234312, 0x0e237b02, 0x0e254312, 0x0e257b12, 0x0e2c7b02, 0x0e327b12, 0x0e321e12,
    0x0e364312, 0x0e364302, 0x0e481e02, 0x0e482002, 0x0e517b12, 0x0e704312, 0x0e707b02, 0x0e7c2012,
    0x0e7c5212, 0x0e7c5202, 0x0e7c7c12, 0x0e7c7c02, 0x0e7e4312, 0x0e7e4302, 0x0e8a7b12, 0x0e918712,
    0x0e918702, 0x0e917c12, 0x0e917f02, 0x0e995702, 0x0e994312, 0x0e994302, 0x0e995912, 0x0e9f5212,
    0x0e9f5202, 0x0e9f7b12, 0x0ea27b12, 0x0ea74312, 0x0ea74302, 0x0ea91e12, 0x0ea91e02, 0x0eaa0212,
    0x0eaa7c12, 0x0eaa7c02, 0x0eaa7d02, 0x0c330302, 0x0c6b0312, 0x0c6b0302, 0x0eb30202, 0x0ea47b02,
    0x081e0202, 0x081f0202, 0x08200202, 0x07580202, 0x020b0000, 0x020c0000, 0x020d0000, 0x020e0000,
    0x020f0000, 0x02100000, 0x02110000, 0x02120000, 0x02130000, 0x0e021412, 0x0e021402, 0x0e321412,
    0x0e321402, 0x0e7c1412, 0x0e7c1402, 0x0e9f1412, 0x0e9f1402, 0x0e9f2812, 0x0e9f2802, 0x0e9f1f12,
    0x0e9f1f02, 0x0e9f2512, 0x0e9f2502, 0x0e9f2012, 0x0e9f2002, 0x0e217d02, 0x0e022812, 0x0e022802,
    0x0e022512, 0x0e022502, 0x02140000, 0x02150000, 0x0e251e12, 0x0e251e02, 0x0e251412, 0x0e251402,
    0x0e361412, 0x0e361402, 0x0e7c1b12, 0x0e7c1b02, 0x0e7c3012, 0x0e7c3002, 0x0eaa1412, 0x0eaa1402,
    0x0e351402, 0x02160000, 0x02170000, 0x02180000, 0x0e250e12, 0x0e250e02, 0x00000000, 0x00000000,
    0x00000000, 0x00000000, 0x0e022612, 0x0e022602, 0x02190000, 0x021a0000, 0x0e7c2b12, 0x0e7c2b02,
    0x0e024412, 0x0e024402, 0x0e024612, 0x0e024602, 0x0e214412, 0x0e214402, 0x0e214612, 0x0e214602,
    0x0e324412, 0x0e324402, 0x0e324612, 0x0e324602, 0x0e7c4412, 0x0e7c4402, 0x0e7c4612, 0x0e7c4602,
    0x0e8a4412, 0x0e8a4402, 0x0e8a4612, 0x0e8a4602, 0x0e9f4412, 0x0e9f4402, 0x0e9f4612, 0x0e9f4602,
    0x00000000, 0x00000000, 0x00000000, 0x00000000, 0x00000000, 0x00000000, 0x00000000, 0x00000000,
    0x00000000, 0x00000000, 0x00000000, 0x00000000, 0x00000000, 0x00000000, 0x00000000, 0x00000000,
    0x00000000, 0x00000000, 0x00000000, 0x00000000, 0x00000000, 0x00000000, 0x00000000, 0x00000000,
    0x00000000, 0x00000000, 0x00000000, 0x00000000, 0x00000000, 0x00000000, 0x00000000, 0x00000000,
    0x00000000, 0x00000000, 0x00000000, 0x00000000, 0x00000000, 0x00000000, 0x00000000, 0x00000000,
    0x00000000, 0x00000000, 0x00000000, 0x00000000, 0x00000000, 0x00000000, 0x00000000, 0x00000000,
    0x00000000, 0x00000000, 0x00000000, 0x00000000, 0x00000000, 0x00000000, 0x00000000, 0x00000000,
    0x0e027b02, 0x0e027c02, 0x0e027d02, 0x0e094302, 0x0e0a7b02, 0x0e0a7c02, 0x0e1a5902, 0x0e1a4302,
    0x0e218002, 0x0e217e02, 0x0e217f02, 0x0e217b02, 0x0e218102, 0x0e218202, 0x0e218302, 0x0e351e02,
    0x0e254302, 0x0e257d02, 0x0e25020a, 0x0e257b02, 0x0e257c02, 0x0e2c7c02, 0x0e2c4302, 0x0e2d4302,
    0x0e321e02, 0x0e327b02, 0x0e32020a, 0x0e481902, 0x0e487b02, 0x0e485902, 0x0e487c02, 0x0e517b02,
    0x0e517c02, 0x0e514302, 0x0e704302, 0x0e705902, 0x0e70020a, 0x0e7c2002, 0x0e7c7b0a, 0x0e7c7e02,
    0x0e7e7b02, 0x0e8a7b02, 0x0e8a7c02, 0x0e8a7d02, 0x0e8a7e02, 0x0e8a4302, 0x0e8a7f02, 0x0e8a8002,
    0x0e8a020a, 0x0e8a7b0a, 0x0e914302, 0x0e217c02, 0x0e354302, 0x0e218402, 0x0e218502, 0x0e997b02,
    0x0e995902, 0x0e9f1e02, 0x0e9f7b02, 0x0ea27b02, 0x0ea27c02, 0x0ea47c02, 0x0ea77b02, 0x0ea7020a,
    0x0ea95902, 0x0ea97e02, 0x0eaa0202, 0x0eaa7e02, 0x0eb30302, 0x0eb30402, 0x0eb30502, 0x0e0a8802,
    0x0eb40202, 0x0e09020a, 0x0e218602, 0x0e25430a, 0x0e2c020a, 0x0e357b02, 0x0e367b02, 0x0e48020a,
    0x0e894302, 0x0eb30602, 0x0eb30b02, 0x0e1c7b02, 0x0e1a7b02, 0x0e1c7c02, 0x0e9d7b02, 0x0e997c02,
    0x0e997d02, 0x00000000, 0x00000000, 0x00000000, 0x00000000, 0x00000000, 0x00000000, 0x00000000,
    0x0e2c7e02, 0x0e2c7f02, 0x0e357e02, 0x0e8a8102, 0x0e8a8202, 0x0e8a8302, 0x0e8a840a, 0x0ea47e02,
    0x0ea77e02, 0x01000c00, 0x01001900, 0x01004500, 0x01004600, 0x01004700, 0x01007700, 0x01007800,
    0x01003f00, 0x01007900, 0x01007a00, 0x01007b00, 0x01007c00, 0x01007d00, 0x07430302, 0x07590202,
    0x01004000, 0x07540302, 0x07550302, 0x07480302, 0x01005a00, 0x01006200, 0x01007e00, 0x01007f00,
    0x07db0202, 0x01008100, 0x01008200, 0x01008300, 0x01005000, 0x01005100, 0x01005200, 0x01005300,
    0x07590302, 0x075a0202, 0x075b0202, 0x075c0202, 0x075d0202, 0x075e0202, 0x01008400, 0x00000000,
    0x0e257e02, 0x0e487e02, 0x0e917e02, 0x0ea67e02, 0x01008500, 0x01008600, 0x01008700, 0x01008800,
    0x01008900, 0x01008a00, 0x00000000, 0x00000000, 0x00000000, 0x00000000, 0x00000000, 0x00000000,
    0x00000000, 0x00000000, 0x00000000, 0x00000000, 0x00000000, 0x00000000, 0x00000000, 0x00000000,
    0x00000000, 0x00000000, 0x00000000, 0x00000000, 0x00000000, 0x00000000, 0x00000000, 0x00000000,
    0x01000d00, 0x01000c00, 0x01001000, 0x01001700, 0x01001500, 0x01003e00, 0x01001300, 0x01000e00,
    0x01001100, 0x01003f00, 0x01001800, 0x01001b00, 0x01001200, 0x01000300, 0x01004100, 0x01004200,
    0x01004300, 0x01004400, 0x01004500, 0x01004600, 0x01004700, 0x01004800, 0x01004900, 0x01004a00,
    0x01004b00, 0x01004c00, 0x01004d00, 0x01004e00, 0x01004f00, 0x01005000, 0x01005100, 0x01005200,
    0x01005300, 0x01005400, 0x01005500, 0x01005600, 0x01005700, 0x01005800, 0x01005900, 0x01001a00,
    0x01001900, 0x01005a00, 0x01005b00, 0x01005c00, 0x01005d00, 0x01005e00, 0x01005f00, 0x01006000,
    0x01006100, 0x01006200, 0x01006300, 0x01006400, 0x01006500, 0x01001c00, 0x01001c00, 0x01001d00,
    0x01001e00, 0x01006700, 0x01006800, 0x01006900, 0x01006a00, 0x01006b00, 0x01006c00, 0x01006d00,
    0x01006e00, 0x01006f00, 0x01008d00, 0x01008e00, 0x01001400, 0x01009000, 0x01007400, 0x01007500,
    0x01007600, 0x00000000, 0x00000000, 0x00000000, 0x00000000, 0x00000000, 0x00000000, 0x00000000,
    0x00000000, 0x00000000, 0x00000000, 0x00000000, 0x00000000, 0x00000000, 0x00000000, 0x00000000,
    0x00000000, 0x00000000, 0x00000000, 0x00000000, 0x00000000, 0x00000000, 0x00000000, 0x00000000,
    0x00000000, 0x00000000, 0x00000000, 0x00000000, 0x00000000, 0x00000000, 0x00000000, 0x00000000,
    0x00000000, 0x00000000, 0x00000000, 0x00000000, 0x00000000, 0x00000000, 0x00000000, 0x00000000,
    0x01009100, 0x01009200, 0x01009300, 0x00000000, 0x075f0202, 0x07600202, 0x00000000, 0x00000000,
    0x00000000, 0x00000000, 0x07610202, 0x00000000, 0x00000000, 0x00000000, 0x07620202, 0x00000000,
    0x00000000, 0x00000000, 0x00000000, 0x00000000, 0x07630202, 0x07640202, 0x0f020512, 0x00000000,
    0x0f060512, 0x0f080512, 0x0f0a0512, 0x00000000, 0x0f100512, 0x00000000, 0x0f150512, 0x0f190512,
    0x0f0a1602, 0x0f020212, 0x0f030212, 0x0f040212, 0x0f050212, 0x0f060212, 0x0f070212, 0x0f080212,
    0x0f090212, 0x0f0a0212, 0x0f0b0212, 0x0f0c0212, 0x0f0d0212, 0x0f0e0212, 0x0f0f0212, 0x0f100212,
    0x0f110212, 0x0f120212, 0x00000000, 0x0f130212, 0x0f140212, 0x0f150212, 0x0f160212, 0x0f170212,
    0x0f180212, 0x0f190212, 0x0f0a1312, 0x0f151312, 0x0f020502, 0x0f060502, 0x0f080502, 0x0f0a0502,
    0x0f151602, 0x0f020202, 0x0f030202, 0x0f040202, 0x0f050202, 0x0f060202, 0x0f070202, 0x0f080202,
    0x0f090202, 0x0f0a0202, 0x0f0b0202, 0x0f0c0202, 0x0f0d0202, 0x0f0e0202, 0x0f0f0202, 0x0f100202,
    0x0f110202, 0x0f120202, 0x0f13020a, 0x0f130202, 0x0f140202, 0x0f150202, 0x0f160202, 0x0f170202,
    0x0f180202, 0x0f190202, 0x0f0a1302, 0x0f151302, 0x0f100502, 0x0f150502, 0x0f190502, 0x00000000,
    0x0f030302, 0x0f090302, 0x0f151b12, 0x0f154412, 0x0f151312, 0x0f160302, 0x0f110302, 0x00000000,
    0x00000000, 0x00000000, 0x0f400212, 0x0f400202, 0x0f420212, 0x0f420202, 0x0f440212, 0x0f440202,
    0x0f460212, 0x0f460202, 0x0f480212, 0x0f480202, 0x0f4a0212, 0x0f4a0202, 0x0f4c0212, 0x0f4c0202,
    0x0f4e0212, 0x0f4e0202, 0x0f500212, 0x0f500202, 0x0f520212, 0x0f520202, 0x0f540212, 0x0f540202,
    0x0f0b0302, 0x0f120302, 0x0f130402, 0x00000000, 0x00000000, 0x00000000, 0x00000000, 0x00000000,
    0x00000000, 0x00000000, 0x00000000, 0x00000000, 0x00000000, 0x00000000, 0x00000000, 0x00000000,
    0x00000000, 0x10181312, 0x10150212, 0x100f0e12, 0x101b0212, 0x10240212, 0x102a0212, 0x102d0212,
    0x10330212, 0x103c0212, 0x10450212, 0x10570212, 0x10360e12, 0x00000000, 0x105d0212, 0x106f0212,
    0x10060212, 0x10090212, 0x100c0212, 0x100f0212, 0x10120212, 0x10180212, 0x101e0212, 0x10210212,
    0x10270212, 0x10300212, 0x10360212, 0x10390212, 0x103f0212, 0x10420212, 0x10480212, 0x104b0212,
    0x104e0212, 0x10510212, 0x10540212, 0x105a0212, 0x10630212, 0x10660212, 0x10690212, 0x106c0212,
    0x10720212, 0x10750212, 0x10780212, 0x107b0212, 0x107e0212, 0x10810212, 0x10840212, 0x10870212,
    0x10060202, 0x10090202, 0x100c0202, 0x100f0202, 0x10120202, 0x10180202, 0x101e0202, 0x10210202,
    0x10270202, 0x10300202, 0x10360202, 0x10390202, 0x103f0202, 0x10420202, 0x10480202, 0x104b0202,
    0x104e0202, 0x10510202, 0x10540202, 0x105a0202, 0x10630202, 0x10660202, 0x10690202, 0x106c0202,
    0x10720202, 0x10750202, 0x10780202, 0x107b0202, 0x107e0202, 0x10810202, 0x10840202, 0x10870202,
    0x00000000, 0x10181302, 0x10150202, 0x100f0e02, 0x101b0202, 0x10240202, 0x102a0202, 0x102d0202,
    0x10330202, 0x103c0202, 0x10450202, 0x10570202, 0x10360e02, 0x00000000, 0x105d0202, 0x106f0202,
    0x108d0212, 0x108d0202, 0x10900212, 0x10420302, 0x10930212, 0x10930202, 0x10960212, 0x10960202,
    0x10990212, 0x10990202, 0x109c0212, 0x109c0202, 0x109f0212, 0x109f0202, 0x10a20212, 0x10a20202,
    0x10a50212, 0x10a50202, 0x10a80212, 0x10a80202, 0x10ab0212, 0x10ab0202, 0x10ab4612, 0x10ab4602,
    0x10ae0212, 0x10ae0202, 0x10b10212, 0x10b10202, 0x10b40212, 0x10b40202, 0x10b70212, 0x10b70202,
    0x10ba0212, 0x10ba0202, 0x0cdb3702, 0x01009400, 0x01009500, 0x01009600, 0x01009700, 0x00000000,
    0x00000000, 0x00000000, 0x00000000, 0x00000000, 0x00000000, 0x00000000, 0x00000000, 0x00000000,
    0x100f0312, 0x100f0302, 0x100f1a12, 0x100f1a02, 0x100f0512, 0x100f0502, 0x101e0712, 0x101e0702,
    0x10211a12, 0x10211a02, 0x10361712, 0x10361702, 0x10360912, 0x10360902, 0x10360412, 0x10360402,
    0x10360a12, 0x10360a02, 0x10420712, 0x10420702, 0x10420812, 0x10420802, 0x104b0512, 0x104b0502,
    0x10480512, 0x10480502, 0x10511a12, 0x10511a02, 0x10540712, 0x10540702, 0x105a0b12, 0x105a0b02,
    0x10600212, 0x10600202, 0x10661712, 0x10661702, 0x10690312, 0x10690302, 0x106c0812, 0x106c0702,
    0x106c0912, 0x106c0902, 0x10420912, 0x10420902, 0x10180512, 0x10180502, 0x10181712, 0x10181702,
    0x102a0302, 0x101e1512, 0x101e1502, 0x10360512, 0x10360502, 0x10360612, 0x10360602, 0x10420a12,
    0x10420a02, 0x10660612, 0x10660602, 0x106c0d12, 0x106c0d02, 0x00000000, 0x00000000, 0x00000000,
    0x00000000, 0x00000000, 0x00000000, 0x00000000, 0x00000000, 0x00000000, 0x00000000, 0x00000000,
    0x00000000, 0x00000000, 0x00000000, 0x00000000, 0x00000000, 0x00000000, 0x00000000, 0x00000000,
    0x00000000, 0x00000000, 0x00000000, 0x00000000, 0x00000000, 0x00000000, 0x00000000, 0x00000000,
    0x00000000, 0x00000000, 0x00000000, 0x00000000, 0x00000000, 0x00000000, 0x00000000, 0x00000000,
    0x00000000, 0x00000000, 0x00000000, 0x00000000, 0x00000000, 0x00000000, 0x00000000, 0x00000000,
    0x00000000, 0x00000000, 0x00000000, 0x00000000, 0x00000000, 0x00000000, 0x00000000, 0x00000000,
    0x00000000, 0x00000000, 0x00000000, 0x00000000, 0x00000000, 0x00000000, 0x00000000, 0x00000000,
    0x00000000, 0x00000000, 0x00000000, 0x00000000, 0x00000000, 0x00000000, 0x00000000, 0x00000000,
    0x00000000, 0x00000000, 0x00000000, 0x00000000, 0x00000000, 0x00000000, 0x00000000, 0x00000000,
    0x00000000, 0x00000000, 0x00000000, 0x00000000, 0x00000000, 0x00000000, 0x00000000, 0x00000000,
    0x00000000, 0x00000000, 0x00000000, 0x00000000, 0x00000000, 0x00000000, 0x00000000, 0x00000000,
    0x00000000, 0x00000000, 0x00000000, 0x00000000, 0x00000000, 0x00000000, 0x00000000, 0x00000000,
    0x00000000, 0x11030212, 0x11040212, 0x11050212, 0x11060212, 0x11070212, 0x11080212, 0x11090212,
    0x110a0212, 0x110b0212, 0x110c0212, 0x110d0212, 0x110e0212, 0x110f0212, 0x11100212, 0x11110212,
    0x11120212, 0x11130212, 0x11140212, 0x11150212, 0x11160212, 0x11170212, 0x11180212, 0x11190212,
    0x111a0212, 0x111b0212, 0x111c0212, 0x111d0212, 0x111e0212, 0x111f0212, 0x11200212, 0x11210212,
    0x11220212, 0x11230212, 0x11240212, 0x11250212, 0x11260212, 0x11270212, 0x11280212, 0x00000000,
    0x00000000, 0x01009800, 0x01009900, 0x07650202, 0x07660202, 0x07670202, 0x07680202, 0x07690202,
    0x00000000, 0x11030202, 0x11040202, 0x11050202, 0x11060202, 0x11070202, 0x11080202, 0x11090202,
    0x110a0202, 0x110b0202, 0x110c0202, 0x110d0202, 0x110e0202, 0x110f0202, 0x11100202, 0x11110202,
    0x11120202, 0x11130202, 0x11140202, 0x11150202, 0x11160202, 0x11170202, 0x11180202, 0x11190202,
    0x111a0202, 0x111b0202, 0x111c0202, 0x111d0202, 0x111e0202, 0x111f0202, 0x11200202, 0x11210202,
    0x11220202, 0x11230202, 0x11240202, 0x11250202, 0x11260202, 0x11270202, 0x11280202, 0x00000000,
    0x00000000, 0x076a0202, 0x00000000, 0x00000000, 0x00000000, 0x00000000, 0x00000000, 0x00000000,
    0x00000000, 0x01000300, 0x01000400, 0x01000500, 0x01000600, 0x01000700, 0x01000800, 0x01000900,
    0x01000a00, 0x01000b00, 0x01000c00, 0x01000d00, 0x01000e00, 0x01000f00, 0x01001000, 0x01001100,
    0x01001200, 0x01001300, 0x01001400, 0x01001500, 0x01001600, 0x01001700, 0x01001800, 0x01001900,
    0x01001a00, 0x01001b00, 0x01001c00, 0x01001d00, 0x01001e00, 0x01001f00, 0x01002000, 0x01002100,
    0x01002200, 0x01002300, 0x01002400, 0x01002500, 0x01002600, 0x01002700, 0x01002800, 0x01002900,
    0x01002a00, 0x01002b00, 0x01002c00, 0x01002d00, 0x01002e00, 0x01002f00, 0x076b0202, 0x01003000,
    0x01003100, 0x01003200, 0x01003300, 0x076d0202, 0x00000000, 0x00000000, 0x00000000, 0x00000000,
    0x00000000, 0x00000000, 0x00000000, 0x00000000, 0x00000000, 0x00000000, 0x00000000, 0x00000000,
    0x12020202, 0x12030202, 0x12040202, 0x12050202, 0x12060202, 0x12070202, 0x12080202, 0x12090202,
    0x120a0202, 0x120b0202, 0x120c0202, 0x120c0212, 0x120e0202, 0x120f0202, 0x120f0212, 0x12110202,
    0x12110212, 0x12130202, 0x12140202, 0x12150202, 0x12150212, 0x12170202, 0x12170212, 0x12190202,
    0x121a0202, 0x121b0202, 0x121c0202, 0x00000000, 0x00000000, 0x00000000, 0x00000000, 0x00000000,
    0x02220000, 0x02230000, 0x02240000, 0x076e0202, 0x076f0202, 0x00000000, 0x00000000, 0x00000000,
    0x00000000, 0x00000000, 0x00000000, 0x00000000, 0x00000000, 0x00000000, 0x00000000, 0x00000000,
    0x00000000, 0x00000000, 0x00000000, 0x00000000, 0x00000000, 0x00000000, 0x00000000, 0x00000000,
    0x00000000, 0x00000000, 0x00000000, 0x00000000, 0x07700202, 0x00000000, 0x00000000, 0x00000000,
    0x00000000, 0x00000000, 0x00000000, 0x00000000, 0x00000000, 0x00000000, 0x00000000, 0x00000000,
    0x00000000, 0x00000000, 0x00000000, 0x07710202, 0x00000000, 0x00000000, 0x00000000, 0x07720202,
    0x00000000, 0x13070202, 0x13070302, 0x13070402, 0x13070502, 0x13070602, 0x13070702, 0x130b0802,
    0x130f0802, 0x13130802, 0x13130802, 0x13170802, 0x131b0802, 0x131f0802, 0x13230802, 0x13270802,
    0x132b0802, 0x132f0802, 0x13330802, 0x13370802, 0x133b0802, 0x133f0802, 0x13430802, 0x13470802,
    0x134b0802, 0x134f0802, 0x13530802, 0x00000000, 0x00000000, 0x00000000, 0x00000000, 0x00000000,
    0x00000000, 0x13570802, 0x135b0802, 0x135f0802, 0x13630802, 0x13670802, 0x136b0802, 0x136f0802,
    0x13730802, 0x13770502, 0x13770702, 0x06a00202, 0x06a10202, 0x06a20202, 0x06a30202, 0x06a40202,
    0x06a50202, 0x03000202, 0x06a60202, 0x00000000, 0x00000000, 0x00000000, 0x00000000, 0x00000000,
    0x00000000, 0x00000000, 0x00000000, 0x00000000, 0x00000000, 0x00000000, 0x00000000, 0x00000000,
    0x0c043802, 0x0c223802, 0x0c353802, 0x0c473802, 0x0c593802, 0x0c6c3802, 0x0c7f3802, 0x0c913802,
    0x0ca33802, 0x0cb53802, 0x07730202, 0x07740202, 0x07750202, 0x00000000, 0x00000000, 0x00000000,
    0x13800202, 0x13810202, 0x13820202, 0x13830202, 0x13840202, 0x13850202, 0x13860202, 0x13870202,
    0x13880202, 0x13890202, 0x138a0202, 0x138b0202, 0x138c0202, 0x138d0202, 0x13110802, 0x138f0202,
    0x13900202, 0x13910202, 0x13920202, 0x13930202, 0x13940202, 0x13950202, 0x131d0802, 0x13970202,
    0x13980202, 0x13990202, 0x139a0202, 0x139b0202, 0x139c0202, 0x139d0202, 0x139e0202, 0x139f0202,
    0x13a00202, 0x13a10202, 0x13a20202, 0x13a30202, 0x13a40202, 0x13a50202, 0x13a60202, 0x13a70202,
    0x13350802, 0x13a90202, 0x13aa0202, 0x13ab0202, 0x13ac0202, 0x13ad0202, 0x13ae0202, 0x13af0202,
    0x13b00202, 0x13b10202, 0x13b20202, 0x13b30202, 0x13b40202, 0x13b50202, 0x13b60202, 0x13b70202,
    0x13b80202, 0x13b90202, 0x13ba0202, 0x13bb0202, 0x13bc0202, 0x13bd0202, 0x13be0202, 0x13610802,
    0x13c00202, 0x13c10202, 0x13c20202, 0x13c30202, 0x13c40202, 0x13c50202, 0x13c60202, 0x13c70202,
    0x13c80202, 0x13c90202, 0x13ca0202, 0x13cb0202, 0x13cc0202, 0x13cd0202, 0x13ce0202, 0x13cf0202,
    0x13d00202, 0x13d10202, 0x13d20202, 0x13d30202, 0x13d40202, 0x13d50202, 0x13d60202, 0x13d70202,
    0x13d80202, 0x13d90202, 0x13da0202, 0x13db0202, 0x13dc0202, 0x13dd0202, 0x13de0202, 0x13df0202,
    0x13e00202, 0x13e10202, 0x13e20202, 0x13e30202, 0x07760202, 0x13e40202, 0x00000000, 0x00000000,
    0x00000000, 0x00000000, 0x00000000, 0x00000000, 0x00000000, 0x00000000, 0x00000000, 0x00000000,
    0x00000000, 0x00000000, 0x00000000, 0x00000000, 0x00000000, 0x00000000, 0x00000000, 0x00000000,
    0x00000000, 0x00000000, 0x00000000, 0x00000000, 0x00000000, 0x00000000, 0x00000000, 0x00000000,
    0x0c053902, 0x0c233902, 0x0c363902, 0x0c483902, 0x0c5a3902, 0x0c6d3902, 0x0c803902, 0x0c923902,
    0x0ca43902, 0x0cb63902, 0x00000000, 0x00000000, 0x00000000, 0x00000000, 0x00000000, 0x00000000,
    0x00000000, 0x00000000, 0x00000000, 0x00000000, 0x00000000, 0x00000000, 0x00000000, 0x00000000,
    0x00000000, 0x00000000, 0x00000000, 0x00000000, 0x00000000, 0x00000000, 0x00000000, 0x00000000,
    0x00000000, 0x00000000, 0x00000000, 0x00000000, 0x00000000, 0x00000000, 0x00000000, 0x00000000,
    0x00000000, 0x00000000, 0x00000000, 0x00000000, 0x00000000, 0x00000000, 0x00000000, 0x00000000,
    0x00000000, 0x00000000, 0x00000000, 0x00000000, 0x00000000, 0x00000000, 0x00000000, 0x00000000,
    0x00000000, 0x00000000, 0x00000000, 0x00000000, 0x00000000, 0x00000000, 0x00000000, 0x00000000,
    0x00000000, 0x00000000, 0x00000000, 0x00000000, 0x00000000, 0x00000000, 0x00000000, 0x00000000,
    0x00000000, 0x00000000, 0x00000000, 0x00000000, 0x00000000, 0x00000000, 0x00000000, 0x00000000,
    0x00000000, 0x00000000, 0x00000000, 0x00000000, 0x00000000, 0x00000000, 0x00000000, 0x00000000,
    0x00000000, 0x00000000, 0x00000000, 0x00000000, 0x00000000, 0x00000000, 0x00000000, 0x00000000,
    0x00000000, 0x00000000, 0x00000000, 0x00000000, 0x00000000, 0x00000000, 0x00000000, 0x00000000,
    0x00000000, 0x00000000, 0x00000000, 0x00000000, 0x00000000, 0x00000000, 0x00000000, 0x00000000,
    0x00000000, 0x00000000, 0x00000000, 0x00000000, 0x00000000, 0x00000000, 0x00000000, 0x00000000,
    0x00000000, 0x00000000, 0x00000000, 0x00000000, 0x00000000, 0x00000000, 0x00000000, 0x00000000,
    0x00000000, 0x00000000, 0x00000000, 0x00000000, 0x00000000, 0x00000000, 0x00000000, 0x00000000,
    0x00000000, 0x00000000, 0x00000000, 0x00000000, 0x00000000, 0x00000000, 0x00000000, 0x00000000,
    0x00000000, 0x00000000, 0x00000000, 0x00000000, 0x00000000, 0x00000000, 0x00000000, 0x00000000,
    0x00000000, 0x00000000, 0x00000000, 0x00000000, 0x00000000, 0x00000000, 0x00000000, 0x00000000,
    0x00000000, 0x00000000, 0x00000000, 0x00000000, 0x00000000, 0x00000000, 0x00000000, 0x00000000,
    0x00000000, 0x00000000, 0x00000000, 0x00000000, 0x00000000, 0x00000000, 0x00000000, 0x00000000,
    0x00000000, 0x00000000, 0x00000000, 0x00000000, 0x00000000, 0x00000000, 0x00000000, 0x00000000,
    0x00000000, 0x00000000, 0x00000000, 0x00000000, 0x00000000, 0x00000000, 0x00000000, 0x00000000,
    0x00000000, 0x00000000, 0x00000000, 0x00000000, 0x00000000, 0x00000000, 0x00000000, 0x00000000,
    0x00000000, 0x00000000, 0x00000000, 0x00000000, 0x00000000, 0x00000000, 0x00000000, 0x00000000,
    0x00000000, 0x00000000, 0x00000000, 0x00000000, 0x00000000, 0x00000000, 0x00000000, 0x00000000,
    0x00000000, 0x00000000, 0x00000000, 0x00000000, 0x00000000, 0x00000000, 0x00000000, 0x00000000,
    0x00000000, 0x00000000, 0x00000000, 0x00000000, 0x00000000, 0x00000000, 0x00000000, 0x00000000,
    0x00000000, 0x00000000, 0x00000000, 0x00000000, 0x00000000, 0x00000000, 0x00000000, 0x00000000,
    0x00000000, 0x00000000, 0x00000000, 0x00000000, 0x00000000, 0x00000000, 0x00000000, 0x00000000,
    0x00000000, 0x00000000, 0x00000000, 0x00000000, 0x00000000, 0x00000000, 0x00000000, 0x00000000,
    0x00000000, 0x00000000, 0x00000000, 0x00000000, 0x00000000, 0x00000000, 0x00000000, 0x00000000,
    0x00000000, 0x00000000, 0x00000000, 0x00000000, 0x00000000, 0x00000000, 0x00000000, 0x00000000,
    0x00000000, 0x00000000, 0x00000000, 0x00000000, 0x00000000, 0x00000000, 0x00000000, 0x00000000,
    0x00000000, 0x00000000, 0x00000000, 0x00000000, 0x00000000, 0x00000000, 0x00000000, 0x00000000,
    0x00000000, 0x00000000, 0x00000000, 0x00000000, 0x00000000, 0x00000000, 0x00000000, 0x00000000,
    0x00000000, 0x00000000, 0x00000000, 0x00000000, 0x00000000, 0x00000000, 0x00000000, 0x00000000,
    0x00000000, 0x00000000, 0x00000000, 0x00000000, 0x00000000, 0x00000000, 0x00000000, 0x00000000,
    0x00000000, 0x00000000, 0x00000000, 0x00000000, 0x00000000, 0x00000000, 0x00000000, 0x00000000,
    0x00000000, 0x00000000, 0x00000000, 0x00000000, 0x00000000, 0x00000000, 0x00000000, 0x00000000,
    0x00000000, 0x00000000, 0x00000000, 0x00000000, 0x00000000, 0x00000000, 0x00000000, 0x00000000,
    0x00000000, 0x00000000, 0x00000000, 0x00000000, 0x00000000, 0x00000000, 0x00000000, 0x00000000,
    0x00000000, 0x00000000, 0x00000000, 0x00000000, 0x00000000, 0x00000000, 0x00000000, 0x00000000,
    0x00000000, 0x00000000, 0x00000000, 0x00000000, 0x00000000, 0x00000000, 0x00000000, 0x00000000,
    0x00000000, 0x00000000, 0x00000000, 0x00000000, 0x00000000, 0x00000000, 0x00000000, 0x00000000,
    0x00000000, 0x00000000, 0x00000000, 0x00000000, 0x00000000, 0x00000000, 0x00000000, 0x00000000,
    0x00000000, 0x00000000, 0x00000000, 0x00000000, 0x00000000, 0x00000000, 0x00000000, 0x00000000,
    0x00000000, 0x00000000, 0x00000000, 0x00000000, 0x00000000, 0x00000000, 0x00000000, 0x00000000,
    0x00000000, 0x00000000, 0x00000000, 0x00000000, 0x00000000, 0x00000000, 0x00000000, 0x00000000,
    0x00000000, 0x00000000, 0x00000000, 0x00000000, 0x00000000, 0x00000000, 0x00000000, 0x00000000,
    0x00000000, 0x00000000, 0x00000000, 0x00000000, 0x00000000, 0x00000000, 0x00000000, 0x00000000,
    0x00000000, 0x00000000, 0x00000000, 0x00000000, 0x00000000, 0x00000000, 0x00000000, 0x00000000,
    0x00000000, 0x00000000, 0x00000000, 0x00000000, 0x00000000, 0x00000000, 0x00000000, 0x00000000,
    0x00000000, 0x00000000, 0x00000000, 0x00000000, 0x00000000, 0x00000000, 0x00000000, 0x00000000,
    0x00000000, 0x00000000, 0x00000000, 0x00000000, 0x00000000, 0x00000000, 0x00000000, 0x00000000,
    0x00000000, 0x00000000, 0x00000000, 0x00000000, 0x00000000, 0x00000000, 0x00000000, 0x00000000,
    0x00000000, 0x00000000, 0x00000000, 0x00000000, 0x00000000, 0x00000000, 0x00000000, 0x00000000,
    0x00000000, 0x00000000, 0x00000000, 0x00000000, 0x00000000, 0x00000000, 0x00000000, 0x00000000,
    0x00000000, 0x00000000, 0x00000000, 0x00000000, 0x00000000, 0x00000000, 0x00000000, 0x00000000,
    0x00000000, 0x00000000, 0x00000000, 0x00000000, 0x00000000, 0x00000000, 0x00000000, 0x00000000,
    0x00000000, 0x00000000, 0x00000000, 0x00000000, 0x00000000, 0x00000000, 0x00000000, 0x00000000,
    0x00000000, 0x00000000, 0x00000000, 0x00000000, 0x00000000, 0x00000000, 0x00000000, 0x00000000,
    0x00000000, 0x00000000, 0x00000000, 0x00000000, 0x00000000, 0x00000000, 0x00000000, 0x00000000,
    0x00000000, 0x00000000, 0x00000000, 0x00000000, 0x00000000, 0x00000000, 0x00000000, 0x00000000,
    0x00000000, 0x00000000, 0x00000000, 0x00000000, 0x00000000, 0x00000000, 0x00000000, 0x00000000,
    0x00000000, 0x01000300, 0x01000400, 0x14020202, 0x00000000, 0x14030202, 0x14040202, 0x14050202,
    0x14060202, 0x14070202, 0x14080202, 0x14090202, 0x140a0202, 0x140b0202, 0x140c0202, 0x140d0202,
    0x140e0202, 0x140f0202, 0x14100202, 0x14110202, 0x14120202, 0x14130202, 0x14140202, 0x14150202,
    0x14160202, 0x14170202, 0x14180202, 0x14190202, 0x141a0202, 0x141b0202, 0x141c0202, 0x141d0202,
    0x141e0202, 0x141f0202, 0x14200202, 0x14210202, 0x14220202, 0x14230202, 0x14240202, 0x14250202,
    0x14260202, 0x14270202, 0x14280202, 0x14290202, 0x142a0202, 0x142b0202, 0x142c0202, 0x142d0202,
    0x142e0202, 0x142f0202, 0x14300202, 0x14310202, 0x14320202, 0x14330202, 0x14340202, 0x14350202,
    0x14360202, 0x14370202, 0x00000000, 0x00000000, 0x01000500, 0x14380202, 0x14390202, 0x143a0202,
    0x143b0202, 0x01000600, 0x01000700, 0x01000800, 0x01000900, 0x01000a00, 0x01000b00, 0x01000c00,
    0x01000d00, 0x143c0202, 0x143d0202, 0x143e0202, 0x143f0202, 0x01000e00, 0x00000000, 0x00000000,
    0x14400202, 0x01000f00, 0x01001000, 0x01001100, 0x01001200, 0x00000000, 0x00000000, 0x00000000,
    0x14130702, 0x14140702, 0x14150702, 0x141a0702, 0x141f0702, 0x14200702, 0x14290702, 0x142d0702,
    0x14490202, 0x144a0202, 0x01001300, 0x01001400, 0x01001500, 0x144b0202, 0x0c063a02, 0x0c243a02,
    0x0c373a02, 0x0c493a02, 0x0c5b3a02, 0x0c6e3a02, 0x0c813a02, 0x0c933a02, 0x0ca53a02, 0x0cb73a02,
    0x144c0202, 0x00000000, 0x00000000, 0x00000000, 0x00000000, 0x00000000, 0x00000000, 0x00000000,
    0x00000000, 0x00000000, 0x00000000, 0x00000000, 0x00000000, 0x00000000, 0x00000000, 0x00000000,
    0x00000000, 0x01000300, 0x15020202, 0x15030202, 0x00000000, 0x15040202, 0x15050202, 0x15060202,
    0x15070202, 0x15080202, 0x15090202, 0x150a0202, 0x150b0202, 0x00000000, 0x00000000, 0x150c0202,
    0x150d0202, 0x00000000, 0x00000000, 0x150e0202, 0x150f0202, 0x15100202, 0x15110202, 0x15120202,
    0x15130202, 0x15140202, 0x15150202, 0x15160202, 0x15170202, 0x15180202, 0x15190202, 0x151a0202,
    0x151b0202, 0x151c0202, 0x151d0202, 0x151e0202, 0x151f0202, 0x15200202, 0x15210202, 0x15220202,
    0x15230202, 0x00000000, 0x15240202, 0x15250202, 0x15260202, 0x15270202, 0x15280202, 0x15290202,
    0x152a0202, 0x00000000, 0x152b0202, 0x00000000, 0x00000000, 0x00000000, 0x152c0202, 0x152d0202,
    0x152e0202, 0x152f0202, 0x00000000, 0x00000000, 0x01000400, 0x00000000, 0x15300202, 0x15310202,
    0x15320202, 0x01000500, 0x01000600, 0x01000700, 0x01000800, 0x00000000, 0x00000000, 0x15330202,
    0x15340202, 0x00000000, 0x00000000, 0x15350202, 0x15360202, 0x01000900, 0x00000000, 0x00000000,
    0x00000000, 0x00000000, 0x00000000, 0x00000000, 0x00000000, 0x00000000, 0x00000000, 0x15370202,
    0x00000000, 0x00000000, 0x00000000, 0x00000000, 0x151c0602, 0x151d0602, 0x00000000, 0x15290602,
    0x153b0202, 0x153c0202, 0x01000a00, 0x01000b00, 0x00000000, 0x00000000, 0x0c073b02, 0x0c253b02,
    0x0c383b02, 0x0c4a3b02, 0x0c5c3b02, 0x0c6f3b02, 0x0c823b02, 0x0c943b02, 0x0ca63b02, 0x0cb83b02,
    0x153d0202, 0x153e0202, 0x153f0202, 0x15400202, 0x0c253c02, 0x0c383c02, 0x0c4a3c02, 0x0c5c3c02,
    0x0c023c02, 0x0cd23c02, 0x15410202, 0x00000000, 0x00000000, 0x00000000, 0x00000000, 0x00000000,
    0x00000000, 0x00000000, 0x01000300, 0x00000000, 0x00000000, 0x16020202, 0x16030202, 0x16040202,
    0x16050202, 0x16060202, 0x16070202, 0x00000000, 0x00000000, 0x00000000, 0x00000000, 0x16080202,
    0x16090202, 0x00000000, 0x00000000, 0x160a0202, 0x160b0202, 0x160c0202, 0x160d0202, 0x160e0202,
    0x160f0202, 0x16100202, 0x16110202, 0x16120202, 0x16130202, 0x16140202, 0x16150202, 0x16160202,
    0x16170202, 0x16180202, 0x16190202, 0x161a0202, 0x161b0202, 0x161c0202, 0x161d0202, 0x161e0202,
    0x161f0202, 0x00000000, 0x16200202, 0x16210202, 0x16220202, 0x16230202, 0x16240202, 0x16250202,
    0x16260202, 0x00000000, 0x16270202, 0x16280202, 0x00000000, 0x16290202, 0x162a0202, 0x00000000,
    0x162b0202, 0x162c0202, 0x00000000, 0x00000000, 0x01000400, 0x162d0202, 0x162e0202, 0x162f0202,
    0x16300202, 0x01000500, 0x01000600, 0x00000000, 0x00000000, 0x00000000, 0x00000000, 0x01000700,
    0x01000800, 0x00000000, 0x00000000, 0x01000900, 0x01000a00, 0x00000000, 0x00000000, 0x00000000,
    0x00000000, 0x00000000, 0x00000000, 0x00000000, 0x00000000, 0x00000000, 0x00000000, 0x00000000,
    0x00000000, 0x160d0602, 0x160e0602, 0x16130602, 0x16180602, 0x00000000, 0x16210602, 0x00000000,
    0x00000000, 0x00000000, 0x00000000, 0x00000000, 0x00000000, 0x00000000, 0x0c083d02, 0x0c263d02,
    0x0c393d02, 0x0c4b3d02, 0x0c5d3d02, 0x0c703d02, 0x0c833d02, 0x0c953d02, 0x0ca73d02, 0x0cb93d02,
    0x01000b00, 0x01000c00, 0x16360202, 0x16370202, 0x16380202, 0x00000000, 0x00000000, 0x00000000,
    0x00000000, 0x00000000, 0x00000000, 0x00000000, 0x00000000, 0x00000000, 0x00000000, 0x00000000,
    0x00000000, 0x01000300, 0x01000400, 0x17020202, 0x00000000, 0x17030202, 0x17040202, 0x17050202,
    0x17060202, 0x17070202, 0x17080202, 0x17090202, 0x00000000, 0x00000000, 0x00000000, 0x170a0202,
    0x170b0202, 0x00000000, 0x00000000, 0x170c0202, 0x170d0202, 0x170e0202, 0x170f0202, 0x17100202,
    0x17110202, 0x17120202, 0x17130202, 0x17140202, 0x17150202, 0x17160202, 0x17170202, 0x17180202,
    0x17190202, 0x171a0202, 0x171b0202, 0x171c0202, 0x171d0202, 0x171e0202, 0x171f0202, 0x17200202,
    0x17210202, 0x00000000, 0x17220202, 0x17230202, 0x17240202, 0x17250202, 0x17260202, 0x17270202,
    0x17280202, 0x00000000, 0x17290202, 0x172a0202, 0x00000000, 0x172b0202, 0x172c0202, 0x172d0202,
    0x172e0202, 0x172f0202, 0x00000000, 0x00000000, 0x01000500, 0x17300202, 0x17310202, 0x17320202,
    0x17330202, 0x01000600, 0x01000700, 0x01000800, 0x01000900, 0x01000a00, 0x00000000, 0x01000b00,
    0x01000c00, 0x00000000, 0x00000000, 0x17340202, 0x17350202, 0x01000d00, 0x00000000, 0x00000000,
    0x17360202, 0x00000000, 0x00000000, 0x00000000, 0x00000000, 0x00000000, 0x00000000, 0x00000000,
    0x00000000, 0x00000000, 0x00000000, 0x00000000, 0x00000000, 0x00000000, 0x00000000, 0x00000000,
    0x17370202, 0x00000000, 0x00000000, 0x00000000, 0x00000000, 0x00000000, 0x0c093e02, 0x0c273e02,
    0x0c3a3e02, 0x0c4c3e02, 0x0c5e3e02, 0x0c713e02, 0x0c843e02, 0x0c963e02, 0x0ca83e02, 0x0cba3e02,
    0x00000000, 0x00000000, 0x00000000, 0x00000000, 0x00000000, 0x00000000, 0x00000000, 0x00000000,
    0x00000000, 0x00000000, 0x00000000, 0x00000000, 0x00000000, 0x00000000, 0x00000000, 0x00000000,
    0x00000000, 0x01000300, 0x18020202, 0x18030202, 0x00000000, 0x18040202, 0x18050202, 0x18060202,
    0x18070202, 0x18080202, 0x18090202, 0x180a0202, 0x180b0202, 0x00000000, 0x00000000, 0x180c0202,
    0x180d0202, 0x00000000, 0x00000000, 0x180e0202, 0x180f0202, 0x18100202, 0x18110202, 0x18120202,
    0x18130202, 0x18140202, 0x18150202, 0x18160202, 0x18170202, 0x18180202, 0x18190202, 0x181a0202,
    0x181b0202, 0x181c0202, 0x181d0202, 0x181e0202, 0x181f0202, 0x18200202, 0x18210202, 0x18220202,
    0x18230202, 0x00000000, 0x18240202, 0x18250202, 0x18260202, 0x18270202, 0x18280202, 0x18290202,
    0x182a0202, 0x00000000, 0x182b0202, 0x182c0202, 0x00000000, 0x00000000, 0x182d0202, 0x182e0202,
    0x182f0202, 0x18300202, 0x00000000, 0x00000000, 0x01000400, 0x18310202, 0x18320202, 0x01000500,
    0x18330202, 0x01000600, 0x01000700, 0x01000800, 0x00000000, 0x00000000, 0x00000000, 0x18340202,
    0x18350202, 0x00000000, 0x00000000, 0x18360202, 0x18370202, 0x01000900, 0x00000000, 0x00000000,
    0x00000000, 0x00000000, 0x00000000, 0x00000000, 0x00000000, 0x00000000, 0x00000000, 0x18380202,
    0x00000000, 0x00000000, 0x00000000, 0x00000000, 0x181c0602, 0x181d0602, 0x00000000, 0x18290602,
    0x183c0202, 0x183d0202, 0x00000000, 0x00000000, 0x00000000, 0x00000000, 0x0c0a3f02, 0x0c283f02,
    0x0c3b3f02, 0x0c4d3f02, 0x0c5f3f02, 0x0c723f02, 0x0c853f02, 0x0c973f02, 0x0ca93f02, 0x0cbb3f02,
    0x183e0202, 0x00000000, 0x00000000, 0x00000000, 0x00000000, 0x00000000, 0x00000000, 0x00000000,
    0x00000000, 0x00000000, 0x00000000, 0x00000000, 0x00000000, 0x00000000, 0x00000000, 0x00000000,
    0x00000000, 0x00000000, 0x19020202, 0x19030202, 0x00000000, 0x19040202, 0x19050202, 0x19060202,
    0x19070202, 0x19080202, 0x19090202, 0x00000000, 0x00000000, 0x00000000, 0x190a0202, 0x190b0202,
    0x190c0202, 0x00000000, 0x190d0202, 0x190e0202, 0x190f0202, 0x19100202, 0x00000000, 0x00000000,
    0x00000000, 0x19110202, 0x19120202, 0x00000000, 0x19130202, 0x00000000, 0x19140202, 0x19150202,
    0x00000000, 0x00000000, 0x00000000, 0x19160202, 0x19170202, 0x00000000, 0x00000000, 0x00000000,
    0x19180202, 0x19190202, 0x191a0202, 0x00000000, 0x00000000, 0x00000000, 0x191b0202, 0x191c0202,
    0x191d0202, 0x191e0202, 0x191f0202, 0x19200202, 0x19210202, 0x19220202, 0x00000000, 0x19230202,
    0x19240202, 0x19250202, 0x00000000, 0x00000000, 0x00000000, 0x00000000, 0x19260202, 0x19270202,
    0x01000300, 0x19280202, 0x19290202, 0x00000000, 0x00000000, 0x00000000, 0x192a0202, 0x192b0202,
    0x192c0202, 0x00000000, 0x192d0202, 0x192e0202, 0x192f0202, 0x01000400, 0x00000000, 0x00000000,
    0x00000000, 0x00000000, 0x00000000, 0x00000000, 0x00000000, 0x00000000, 0x00000000, 0x19300202,
    0x00000000, 0x00000000, 0x00000000, 0x00000000, 0x00000000, 0x00000000, 0x00000000, 0x00000000,
    0x00000000, 0x00000000, 0x00000000, 0x00000000, 0x00000000, 0x00000000, 0x00000000, 0x0c294002,
    0x0c3c4002, 0x0c4e4002, 0x0c604002, 0x0c734002, 0x0c864002, 0x0c984002, 0x0caa4002, 0x0cbc4002,
    0x0cc74002, 0x0cd84002, 0x0cdc4002, 0x00000000, 0x00000000, 0x00000000, 0x00000000, 0x00000000,
    0x00000000, 0x00000000, 0x00000000, 0x00000000, 0x00000000, 0x00000000, 0x00000000, 0x00000000,
    0x00000000, 0x1a020202, 0x1a030202, 0x1a040202, 0x00000000, 0x1a050202, 0x1a060202, 0x1a070202,
    0x1a080202, 0x1a090202, 0x1a0a0202, 0x1a0b0202, 0x1a0c0202, 0x00000000, 0x1a0d0202, 0x1a0e0202,
    0x1a0f0202, 0x00000000, 0x1a100202, 0x1a110202, 0x1a120202, 0x1a130202, 0x1a140202, 0x1a150202,
    0x1a160202, 0x1a170202, 0x1a180202, 0x1a190202, 0x1a1a0202, 0x1a1b0202, 0x1a1c0202, 0x1a1d0202,
    0x1a1e0202, 0x1a1f0202, 0x1a200202, 0x1a210202, 0x1a220202, 0x1a230202, 0x1a240202, 0x1a250202,
    0x1a260202, 0x00000000, 0x1a270202, 0x1a280202, 0x1a290202, 0x1a2a0202, 0x1a2b0202, 0x1a2c0202,
    0x1a2d0202, 0x1a2e0202, 0x1a2f0202, 0x1a300202, 0x00000000, 0x1a310202, 0x1a320202, 0x1a330202,
    0x1a340202, 0x1a350202, 0x00000000, 0x00000000, 0x00000000, 0x00000000, 0x01000300, 0x01000400,
    0x01000500, 0x1a360202, 0x1a370202, 0x1a380202, 0x1a390202, 0x00000000, 0x01000600, 0x01000700,
    0x01000800, 0x00000000, 0x01000900, 0x01000a00, 0x01000b00, 0x01000c00, 0x00000000, 0x00000000,
    0x00000000, 0x00000000, 0x00000000, 0x00000000, 0x00000000, 0x01000d00, 0x01000e00, 0x00000000,
    0x00000000, 0x00000000, 0x00000000, 0x00000000, 0x00000000, 0x00000000, 0x00000000, 0x00000000,
    0x1a3a0202, 0x1a3b0202, 0x00000000, 0x00000000, 0x00000000, 0x00000000, 0x0c0b4102, 0x0c2a4102,
    0x0c3d4102, 0x0c4f4102, 0x0c614102, 0x0c744102, 0x0c874102, 0x0c994102, 0x0cab4102, 0x0cbd4102,
    0x00000000, 0x00000000, 0x00000000, 0x00000000, 0x00000000, 0x00000000, 0x00000000, 0x00000000,
    0x00000000, 0x00000000, 0x00000000, 0x00000000, 0x00000000, 0x00000000, 0x00000000, 0x00000000,
    0x00000000, 0x00000000, 0x1b020202, 0x1b030202, 0x00000000, 0x1b040202, 0x1b050202, 0x1b060202,
    0x1b070202, 0x1b080202, 0x1b090202, 0x1b0a0202, 0x1b0b0202, 0x00000000, 0x1b0c0202, 0x1b0d0202,
    0x1b0e0202, 0x00000000, 0x1b0f0202, 0x1b100202, 0x1b110202, 0x1b120202, 0x1b130202, 0x1b140202,
    0x1b150202, 0x1b160202, 0x1b170202, 0x1b180202, 0x1b190202, 0x1b1a0202, 0x1b1b0202, 0x1b1c0202,
    0x1b1d0202, 0x1b1e0202, 0x1b1f0202, 0x1b200202, 0x1b210202, 0x1b220202, 0x1b230202, 0x1b240202,
    0x1b250202, 0x00000000, 0x1b260202, 0x1b270202, 0x1b280202, 0x1b290202, 0x1b2a0202, 0x1b2b0202,
    0x1b2c0202, 0x1b2d0202, 0x1b2e0202, 0x1b2f0202, 0x00000000, 0x1b300202, 0x1b310202, 0x1b320202,
    0x1b330202, 0x1b340202, 0x00000000, 0x00000000, 0x00000000, 0x00000000, 0x1b350202, 0x01000300,
    0x1b360202, 0x1b370202, 0x1b380202, 0x1b390202, 0x1b3a0202, 0x00000000, 0x01000400, 0x1b3b0202,
    0x1b3c0202, 0x00000000, 0x1b3d0202, 0x1b3e0202, 0x1b3f0202, 0x01000500, 0x00000000, 0x00000000,
    0x00000000, 0x00000000, 0x00000000, 0x00000000, 0x00000000, 0x1b400202, 0x1b410202, 0x00000000,
    0x00000000, 0x00000000, 0x00000000, 0x00000000, 0x00000000, 0x00000000, 0x1b420202, 0x00000000,
    0x1b430202, 0x1b440202, 0x00000000, 0x00000000, 0x00000000, 0x00000000, 0x0c0c4202, 0x0c2b4202,
    0x0c3e4202, 0x0c504202, 0x0c624202, 0x0c754202, 0x0c884202, 0x0c9a4202, 0x0cac4202, 0x0cbe4202,
    0x00000000, 0x00000000, 0x00000000, 0x00000000, 0x00000000, 0x00000000, 0x00000000, 0x00000000,
    0x00000000, 0x00000000, 0x00000000, 0x00000000, 0x00000000, 0x00000000, 0x00000000, 0x00000000,
    0x00000000, 0x00000000, 0x1c020202, 0x1c030202, 0x00000000, 0x1c040202, 0x1c050202, 0x1c060202,
    0x1c070202, 0x1c080202, 0x1c090202, 0x1c0a0202, 0x1c0b0202, 0x00000000, 0x1c0c0202, 0x1c0d0202,
    0x1c0e0202, 0x00000000, 0x1c0f0202, 0x1c100202, 0x1c110202, 0x1c120202, 0x1c130202, 0x1c140202,
    0x1c150202, 0x1c160202, 0x1c170202, 0x1c180202, 0x1c190202, 0x1c1a0202, 0x1c1b0202, 0x1c1c0202,
    0x1c1d0202, 0x1c1e0202, 0x1c1f0202, 0x1c200202, 0x1c210202, 0x1c220202, 0x1c230202, 0x1c240202,
    0x1c250202, 0x00000000, 0x1c260202, 0x1c270202, 0x1c280202, 0x1c290202, 0x1c2a0202, 0x1c2b0202,
    0x1c2c0202, 0x1c2d0202, 0x1c2e0202, 0x1c2f0202, 0x1c300202, 0x1c310202, 0x1c320202, 0x1c330202,
    0x1c340202, 0x1c350202, 0x00000000, 0x00000000, 0x00000000, 0x00000000, 0x1c360202, 0x1c370202,
    0x1c380202, 0x01000300, 0x01000400, 0x01000500, 0x00000000, 0x00000000, 0x1c390202, 0x1c3a0202,
    0x1c3b0202, 0x00000000, 0x1c3c0202, 0x1c3d0202, 0x1c3e0202, 0x01000600, 0x00000000, 0x00000000,
    0x00000000, 0x00000000, 0x00000000, 0x00000000, 0x00000000, 0x00000000, 0x00000000, 0x1c3f0202,
    0x00000000, 0x00000000, 0x00000000, 0x00000000, 0x00000000, 0x00000000, 0x00000000, 0x00000000,
    0x1c400202, 0x1c410202, 0x00000000, 0x00000000, 0x00000000, 0x00000000, 0x0c0d4302, 0x0c2c4302,
    0x0c3f4302, 0x0c514302, 0x0c634302, 0x0c764302, 0x0c894302, 0x0c9b4302, 0x0cad4302, 0x0cbf4302,
    0x00000000, 0x00000000, 0x00000000, 0x00000000, 0x00000000, 0x00000000, 0x00000000, 0x00000000,
    0x00000000, 0x00000000, 0x00000000, 0x00000000, 0x00000000, 0x00000000, 0x00000000, 0x00000000,
    0x00000000, 0x00000000, 0x1d020202, 0x1d030202, 0x00000000, 0x1d040202, 0x1d050202, 0x1d060202,
    0x1d070202, 0x1d080202, 0x1d090202, 0x1d0a0202, 0x00000000, 0x00000000, 0x1d0b0202, 0x1d0c0202,
    0x1d0d0202, 0x00000000, 0x1d0e0202, 0x1d0f0202, 0x1d100202, 0x1d110202, 0x1d120202, 0x1d130202,
    0x1d140202, 0x1d150202, 0x1d160202, 0x1d170202, 0x1d180202, 0x1d190202, 0x1d1a0202, 0x1d1b0202,
    0x1d1c0202, 0x1d1d0202, 0x1d1e0202, 0x1d1f0202, 0x1d200202, 0x1d210202, 0x1d220202, 0x1d230202,
    0x1d240202, 0x00000000, 0x1d250202, 0x1d260202, 0x1d270202, 0x1d280202, 0x1d290202, 0x1d2a0202,
    0x1d2b0202, 0x00000000, 0x1d2c0202, 0x1d2d0202, 0x00000000, 0x1d2e0202, 0x1d2f0202, 0x1d300202,
    0x1d310202, 0x1d320202, 0x00000000, 0x00000000, 0x00000000, 0x00000000, 0x1d330202, 0x1d340202,
    0x1d350202, 0x1d360202, 0x1d370202, 0x1d380202, 0x1d390202, 0x00000000, 0x1d3a0202, 0x1d3b0202,
    0x1d3c0202, 0x00000000, 0x1d3d0202, 0x1d3e0202, 0x1d3f0202, 0x1d400202, 0x00000000, 0x00000000,
    0x00000000, 0x00000000, 0x00000000, 0x00000000, 0x00000000, 0x1d410202, 0x00000000, 0x1d420202,
    0x00000000, 0x00000000, 0x00000000, 0x00000000, 0x00000000, 0x00000000, 0x1d430202, 0x00000000,
    0x1d440202, 0x00000000, 0x00000000, 0x00000000, 0x00000000, 0x00000000, 0x00000000, 0x1d450202,
    0x1d460202, 0x1d470202, 0x1d480202, 0x1d490202, 0x1d4a0202, 0x1d4b0202, 0x1d4c0202, 0x1d4d0202,
    0x1d4e0202, 0x1d4f0202, 0x1d500202, 0x1d510202, 0x1d520202, 0x1d530202, 0x1d540202, 0x00000000,
    0x00000000, 0x00000000, 0x00000000, 0x00000000, 0x00000000, 0x00000000, 0x00000000, 0x00000000,
    0x00000000, 0x1e070382, 0x1e0d0382, 0x1e130382, 0x1e190382, 0x1e1f0382, 0x1e250382, 0x1e2b0382,
    0x1e310382, 0x1e370382, 0x1e3d0382, 0x1e430382, 0x1e490382, 0x1e4f0382, 0x1e550382, 0x1e5b0382,
    0x1e610382, 0x1e670382, 0x1e6d0382, 0x1e730382, 0x1e790382, 0x1e7f0382, 0x1e850382, 0x1e8b0382,
    0x1e910382, 0x1e970382, 0x1e9d0382, 0x1ea30382, 0x1ea90382, 0x1eaf0382, 0x1eb50382, 0x1ebb0382,
    0x1ec10382, 0x1ec70382, 0x1ecd0382, 0x1ed30382, 0x1ed90382, 0x1edf0382, 0x1ee50382, 0x1eeb0382,
    0x1ef10382, 0x1ef70382, 0x1efd0382, 0x1f050382, 0x1f0b0382, 0x1f110382, 0x1f170382, 0x1f1d0382,
    0x1f1e0382, 0x1f1f0382, 0x1f200382, 0x1f210382, 0x1f220382, 0x1f230382, 0x1f240382, 0x1f250382,
    0x1f260382, 0x1f270382, 0x1f280382, 0x00000000, 0x00000000, 0x00000000, 0x00000000, 0x0af90202,
    0x1e0203c2, 0x1e0303c2, 0x1e0403c2, 0x1e0503c2, 0x1e0603c2, 0x1f290382, 0x1f2a0382, 0x01000200,
    0x01000300, 0x01000400, 0x01000500, 0x01000600, 0x01000000, 0x01000700, 0x1f2b0382, 0x1f2c0382,
    0x0c0e4402, 0x0c2d4402, 0x0c404402, 0x0c524402, 0x0c644402, 0x0c774402, 0x0c8a4402, 0x0c9c4402,
    0x0cae4402, 0x0cc04402, 0x1f2d0382, 0x1f2e0382, 0x00000000, 0x00000000, 0x00000000, 0x00000000,
    0x00000000, 0x00000000, 0x00000000, 0x00000000, 0x00000000, 0x00000000, 0x00000000, 0x00000000,
    0x00000000, 0x00000000, 0x00000000, 0x00000000, 0x00000000, 0x00000000, 0x00000000, 0x00000000,
    0x1e0203c2, 0x1e0303c2, 0x1e0403c2, 0x1e0503c2, 0x1e0603c2, 0x00000000, 0x00000000, 0x00000000,
    0x00000000, 0x00000000, 0x00000000, 0x00000000, 0x00000000, 0x00000000, 0x00000000, 0x00000000,
    0x00000000, 0x1f020202, 0x1f030202, 0x00000000, 0x1f040202, 0x00000000, 0x00000000, 0x1f050202,
    0x1f060202, 0x00000000, 0x1f070202, 0x00000000, 0x00000000, 0x1f080202, 0x00000000, 0x00000000,
    0x00000000, 0x00000000, 0x00000000, 0x00000000, 0x1f090202, 0x1f0a0202, 0x1f0b0202, 0x1f0c0202,
    0x00000000, 0x1f0d0202, 0x1f0e0202, 0x1f0f0202, 0x1f100202, 0x1f110202, 0x1f120202, 0x1f130202,
    0x00000000, 0x1f140202, 0x1f150202, 0x1f160202, 0x00000000, 0x1f170202, 0x00000000, 0x1f180202,
    0x00000000, 0x00000000, 0x1f190202, 0x1f1a0202, 0x00000000, 0x1f1b0202, 0x1f1c0202, 0x1f1d0202,
    0x1f1e0202, 0x01000300, 0x1f1f0202, 0x1f200202, 0x01000400, 0x01000500, 0x01000600, 0x01000700,
    0x01000800, 0x01000900, 0x00000000, 0x01000a00, 0x01000b00, 0x1f210202, 0x00000000, 0x00000000,
    0x1f220202, 0x1f230202, 0x1f240202, 0x1f250202, 0x1f260202, 0x00000000, 0x1f270202, 0x00000000,
    0x01000c00, 0x01000d00, 0x01000e00, 0x01000f00, 0x01001000, 0x01001100, 0x00000000, 0x00000000,
    0x0c0f4502, 0x0c2e4502, 0x0c414502, 0x0c534502, 0x0c654502, 0x0c784502, 0x0c8b4502, 0x0c9d4502,
    0x0caf4502, 0x0cc14502, 0x00000000, 0x00000000, 0x1f280202, 0x1f290202, 0x00000000, 0x00000000,
    0x00000000, 0x00000000, 0x00000000, 0x00000000, 0x00000000, 0x00000000, 0x00000000, 0x00000000,
    0x00000000, 0x00000000, 0x00000000, 0x00000000, 0x00000000, 0x00000000, 0x00000000, 0x00000000,
    0x1f2a0202, 0x1f2b0202, 0x1f2c0202, 0x1f2d0202, 0x1f2e0202, 0x00000000, 0x00000000, 0x00000000,
    0x00000000, 0x00000000, 0x00000000, 0x00000000, 0x00000000, 0x00000000, 0x00000000, 0x00000000,
    0x00000000, 0x00000000, 0x00000000, 0x00000000, 0x00000000, 0x00000000, 0x00000000, 0x00000000,
    0x00000000, 0x00000000, 0x00000000, 0x00000000, 0x00000000, 0x00000000, 0x00000000, 0x00000000,
    0x00000000, 0x00000000, 0x00000000, 0x00000000, 0x00000000, 0x00000000, 0x00000000, 0x00000000,
    0x00000000, 0x00000000, 0x00000000, 0x00000000, 0x00000000, 0x00000000, 0x00000000, 0x00000000,
    0x00000000, 0x00000000, 0x00000000, 0x00000000, 0x00000000, 0x00000000, 0x00000000, 0x00000000,
    0x00000000, 0x00000000, 0x00000000, 0x00000000, 0x00000000, 0x00000000, 0x00000000, 0x00000000,
    0x00000000, 0x00000000, 0x00000000, 0x00000000, 0x00000000, 0x00000000, 0x00000000, 0x00000000,
    0x00000000, 0x00000000, 0x00000000, 0x00000000, 0x00000000, 0x00000000, 0x00000000, 0x00000000,
    0x00000000, 0x00000000, 0x00000000, 0x00000000, 0x00000000, 0x00000000, 0x00000000, 0x00000000,
    0x00000000, 0x00000000, 0x00000000, 0x00000000, 0x00000000, 0x00000000, 0x00000000, 0x00000000,
    0x00000000, 0x00000000, 0x00000000, 0x00000000, 0x00000000, 0x00000000, 0x00000000, 0x00000000,
    0x00000000, 0x00000000, 0x00000000, 0x00000000, 0x00000000, 0x00000000, 0x00000000, 0x00000000,
    0x00000000, 0x00000000, 0x00000000, 0x00000000, 0x00000000, 0x00000000, 0x00000000, 0x00000000,
    0x00000000, 0x00000000, 0x00000000, 0x00000000, 0x00000000, 0x00000000, 0x00000000, 0x00000000,
    0x00000000, 0x00000000, 0x00000000, 0x00000000, 0x00000000, 0x00000000, 0x00000000, 0x00000000,
    0x00000000, 0x00000000, 0x00000000, 0x00000000, 0x00000000, 0x00000000, 0x00000000, 0x00000000,
    0x00000000, 0x00000000, 0x00000000, 0x00000000, 0x00000000, 0x00000000, 0x00000000, 0x00000000,
    0x00000000, 0x00000000, 0x00000000, 0x00000000, 0x00000000, 0x00000000, 0x00000000, 0x00000000,
    0x00000000, 0x00000000, 0x00000000, 0x00000000, 0x00000000, 0x00000000, 0x00000000, 0x00000000,
    0x00000000, 0x00000000, 0x00000000, 0x00000000, 0x00000000, 0x00000000, 0x00000000, 0x00000000,
    0x00000000, 0x00000000, 0x00000000, 0x00000000, 0x00000000, 0x00000000, 0x00000000, 0x00000000,
    0x00000000, 0x00000000, 0x00000000, 0x00000000, 0x00000000, 0x00000000, 0x00000000, 0x00000000,
    0x00000000, 0x00000000, 0x00000000, 0x00000000, 0x00000000, 0x00000000, 0x00000000, 0x00000000,
    0x00000000, 0x00000000, 0x00000000, 0x00000000, 0x00000000, 0x00000000, 0x00000000, 0x00000000,
    0x00000000, 0x00000000, 0x00000000, 0x00000000, 0x00000000, 0x00000000, 0x00000000, 0x00000000,
    0x00000000, 0x00000000, 0x00000000, 0x00000000, 0x00000000, 0x00000000, 0x00000000, 0x00000000,
    0x00000000, 0x00000000, 0x00000000, 0x00000000, 0x00000000, 0x00000000, 0x00000000, 0x00000000,
    0x00000000, 0x00000000, 0x00000000, 0x00000000, 0x00000000, 0x00000000, 0x00000000, 0x00000000,
    0x00000000, 0x00000000, 0x00000000, 0x00000000, 0x00000000, 0x00000000, 0x00000000, 0x00000000,
    0x00000000, 0x00000000, 0x00000000, 0x00000000, 0x00000000, 0x00000000, 0x00000000, 0x00000000,
    0x00000000, 0x00000000, 0x00000000, 0x00000000, 0x00000000, 0x00000000, 0x00000000, 0x00000000,
    0x00000000, 0x00000000, 0x00000000, 0x00000000, 0x00000000, 0x00000000, 0x00000000, 0x00000000,
    0x20020202, 0x20030202, 0x20040202, 0x20050202, 0x20060202, 0x20070202, 0x20080202, 0x20090202,
    0x200a0202, 0x200b0202, 0x200c0202, 0x200d0202, 0x200e0202, 0x200f0202, 0x20100202, 0x20110202,
    0x20120202, 0x20130202, 0x20140202, 0x20150202, 0x20160202, 0x20170202, 0x20180202, 0x20190202,
    0x201a0202, 0x201b0202, 0x201c0202, 0x201d0202, 0x201e0202, 0x201f0202, 0x20200202, 0x20210202,
    0x20220202, 0x20230202, 0x20240202, 0x00000000, 0x00000000, 0x00000000, 0x01000300, 0x01000400,
    0x01000500, 0x01000600, 0x01000700, 0x20250202, 0x20260202, 0x00000000, 0x01000800, 0x20270202,
    0x01000900, 0x20280202, 0x00000000, 0x20290202, 0x202a0202, 0x202b0202, 0x01000a00, 0x01000b00,
    0x202c0202, 0x202d0202, 0x202e0202, 0x01000c00, 0x202f0202, 0x01000d00, 0x01000e00, 0x00000000,
    0x0c104602, 0x0c2f4602, 0x0c424602, 0x0c544602, 0x0c664602, 0x0c794602, 0x0c8c4602, 0x0c9e4602,
    0x0cb04602, 0x0cc24602, 0x20300202, 0x01000f00, 0x01001000, 0x00000000, 0x00000000, 0x00000000,
    0x00000000, 0x00000000, 0x00000000, 0x00000000, 0x00000000, 0x00000000, 0x00000000, 0x00000000,
    0x00000000, 0x00000000, 0x00000000, 0x00000000, 0x00000000, 0x00000000, 0x00000000, 0x00000000,
    0x00000000, 0x00000000, 0x00000000, 0x00000000, 0x00000000, 0x00000000, 0x00000000, 0x00000000,
    0x00000000, 0x00000000, 0x00000000, 0x00000000, 0x00000000, 0x00000000, 0x00000000, 0x00000000,
    0x00000000, 0x00000000, 0x00000000, 0x00000000, 0x00000000, 0x00000000, 0x00000000, 0x00000000,
    0x00000000, 0x00000000, 0x00000000, 0x00000000, 0x00000000, 0x00000000, 0x00000000, 0x00000000,
    0x00000000, 0x00000000, 0x00000000, 0x00000000, 0x00000000, 0x00000000, 0x00000000, 0x00000000,
    0x00000000, 0x00000000, 0x00000000, 0x00000000, 0x00000000, 0x00000000, 0x00000000, 0x00000000,
    0x00000000, 0x00000000, 0x00000000, 0x00000000, 0x00000000, 0x00000000, 0x00000000, 0x00000000,
    0x00000000, 0x00000000, 0x00000000, 0x00000000, 0x00000000, 0x00000000, 0x00000000, 0x00000000,
    0x21050212, 0x210a0212, 0x210f0212, 0x21140212, 0x21190212, 0x211e0212, 0x21230212, 0x212d0212,
    0x21320212, 0x21370212, 0x213c0212, 0x21410212, 0x21460212, 0x21500212, 0x21550212, 0x215a0212,
    0x215f0212, 0x21640212, 0x21690212, 0x216e0212, 0x21780212, 0x217d0212, 0x21820212, 0x21870212,
    0x218c0212, 0x21910212, 0x21960212, 0x219b0212, 0x21a00212, 0x21a50212, 0x21aa0212, 0x21b40212,
    0x21b90212, 0x21280212, 0x214b0212, 0x21730212, 0x21af0212, 0x21d20212, 0x00000000, 0x00000000,
    0x00000000, 0x00000000, 0x00000000, 0x00000000, 0x00000000, 0x00000000, 0x00000000, 0x00000000,
    0x21050202, 0x210a0202, 0x210f0202, 0x21140202, 0x21190202, 0x211e0202, 0x21230202, 0x212d0202,
    0x21320202, 0x21370202, 0x213c0202, 0x21410202, 0x21460202, 0x21500202, 0x21550202, 0x215a0202,
    0x215f0202, 0x21640202, 0x21690202, 0x216e0202, 0x21780202, 0x217d0202, 0x21820202, 0x21870202,
    0x218c0202, 0x21910202, 0x21960202, 0x219b0202, 0x21a00202, 0x21a50202, 0x21aa0202, 0x21b40202,
    0x21b90202, 0x21280202, 0x214b0202, 0x21730202, 0x21af0202, 0x21d20202, 0x21d70202, 0x00000000,
    0x00000000, 0x00000000, 0x00000000, 0x07dc0202, 0x00000000, 0x00000000, 0x00000000, 0x00000000,
    0x80020202, 0x82530202, 0x84a70202, 0x87030202, 0x89550202, 0x8ba70202, 0x8e100202, 0x906a0202,
    0x92bf0202, 0x951f0202, 0x97790202, 0x99d50202, 0x9c7b0202, 0x9ece0202, 0xa1240202, 0xa3790202,
    0xa5ca0202, 0xa81d0202, 0xaa700202, 0x86f90202, 0x86f80202, 0x86fa0202, 0x86fb0202, 0x89540202,
    0x8dfa0202, 0x8dfd0202, 0x8e0d0202, 0x8e0e0202, 0x90630202, 0x90690202, 0x92bb0202, 0x92bc0202,
    0x92bd0202, 0x95120202, 0x95130202, 0x95140202, 0x95150202, 0x95160202, 0x95170202, 0x95180202,
    0x95190202, 0x951a0202, 0x951b0202, 0x951d0202, 0x951e0202, 0x97720202, 0x97730202, 0x97740202,
    0x97750202, 0x97760202, 0x97770202, 0x97780202, 0x977a0202, 0x99ce0202, 0x99cd0202, 0x99cf0202,
    0x99d00202, 0x99d10202, 0x99d20202, 0x99d30202, 0x95200202, 0x977b0202, 0x95210202, 0x977c0202,
    0x99d40202, 0x9c6c0202, 0x9c6e0202, 0x9c6f0202, 0x9c700202, 0x9c710202, 0x9c730202, 0x9c6b0202,
    0x9c750202, 0x9c760202, 0x9c780202, 0x9c790202, 0x9c7a0202, 0xa1230202, 0x9c7c0202, 0x9ecf0202,
    0x9c7d0202, 0x9ed00202, 0xa3770202, 0xa3780202, 0xa1250202, 0xa1260202, 0xaa6e0202, 0xaa6f0202,
    0xacc10202, 0xacc20202, 0x00000000, 0x00000000, 0x00000000, 0x00000000, 0x00000000, 0xacc70202,
    0x9a1a0202, 0x99d60202, 0x99d70202, 0x99d80202, 0x99d90202, 0x99da0202, 0x99db0202, 0x99dc0202,
    0x99dd0202, 0x99de0202, 0x99df0202, 0x99e00202, 0x99e10202, 0x99e20202, 0x99e30202, 0x99e40202,
    0x99e50202, 0x99e60202, 0x99e70202, 0x99e80202, 0x99e90202, 0x99ea0202, 0x99eb0202, 0x99ec0202,
    0x99ed0202, 0x99ee0202, 0x99ef0202, 0x99f00202, 0x99f10202, 0x99f20202, 0x99f30202, 0x99f40202,
    0x99f50202, 0x99f60202, 0x99f70202, 0x99f80202, 0x99f90202, 0x99fa0202, 0x99fb0202, 0x99fc0202,
    0x99fd0202, 0x99fe0202, 0x99ff0202, 0x9a020202, 0x9a030202, 0x9a040202, 0x9a050202, 0x9a060202,
    0x9a070202, 0x9a080202, 0x9a090202, 0x9a0a0202, 0x9a0b0202, 0x9a0c0202, 0x9a0d0202, 0x9a0e0202,
    0x9a0f0202, 0x9a100202, 0x9a110202, 0x9a120202, 0x9a130202, 0x9a150202, 0x9a140202, 0x9a160202,
    0x9a170202, 0x9a180202, 0x9a190202, 0x00000000, 0x00000000, 0x00000000, 0x00000000, 0x00000000,
    0x80020204, 0x82530204, 0x84a50204, 0x84a70204, 0x86fe0204, 0x87020204, 0x87030204, 0x8ba70204,
    0x8df80204, 0x8dfe0204, 0x8e030204, 0x8e070204, 0x8e0a0204, 0x8e0b0204, 0x8e0c0204, 0x8e100204,
    0x906a0204, 0x95120204, 0x951f0204, 0x97790204, 0x99d50204, 0x9c7b0204, 0xa1240204, 0xa3790204,
    0xa5ca0204, 0xa81d0204, 0xaa700204, 0x84a40204, 0x84a60204, 0x86f90204, 0x86fa0204, 0x86fc0204,
    0x86fd0204, 0x86ff0204, 0x89540204, 0x89560204, 0x8df90204, 0x8dfa0204, 0x8dfb0204, 0x8dfc0204,
    0x8dfd0204, 0x8dff0204, 0x8e020204, 0x8e040204, 0x8e050204, 0x8e060204, 0x8e080204, 0x8e090204,
    0x8e0c0204, 0x8e0f0204, 0x90610204, 0x90620204, 0x90630204, 0x90640204, 0x90650204, 0x90660204,
    0x90670204, 0x90680204, 0x90690204, 0x92be0204, 0x951b0204, 0x951c0204, 0x951d0204, 0x97720204,
    0x97740204, 0x97750204, 0x97770204, 0x99d40204, 0x9c6c0204, 0x9c6d0204, 0x9c6b0204, 0x9c770204,
    0x9c7a0204, 0x9c720204, 0x9c740204, 0xaa6e0204, 0xaa6f0204, 0xacc30204, 0xacc40204, 0xacc50204,
    0xacc60204, 0xacc20204, 0x00000000, 0x00000000, 0x00000000, 0x00000000, 0x00000000, 0x00000000,
    0x00000000, 0x00000000, 0x00000000, 0x00000000, 0x00000000, 0x00000000, 0x00000000, 0x00000000,
    0x00000000, 0x00000000, 0x00000000, 0x00000000, 0x00000000, 0x00000000, 0x00000000, 0x00000000,
    0x00000000, 0x00000000, 0x00000000, 0x00000000, 0x00000000, 0x00000000, 0x00000000, 0x00000000,
    0x00000000, 0x00000000, 0x00000000, 0x00000000, 0x00000000, 0x00000000, 0x00000000, 0x00000000,
    0x00000000, 0x00000000, 0x00000000, 0x00000000, 0x00000000, 0x00000000, 0x00000000, 0x00000000,
    0x00000000, 0x00000000, 0x00000000, 0x00000000, 0x00000000, 0x00000000, 0x00000000, 0x00000000,
    0x00000000, 0x00000000, 0x00000000, 0x00000000, 0x00000000, 0x00000000, 0x00000000, 0x00000000,
    0x00000000, 0x00000000, 0x00000000, 0x00000000, 0x00000000, 0x00000000, 0x00000000, 0x00000000,
    0x00000000, 0x00000000, 0x00000000, 0x00000000, 0x00000000, 0x00000000, 0x00000000, 0x00000000,
    0x00000000, 0x00000000, 0x00000000, 0x00000000, 0x00000000, 0x00000000, 0x00000000, 0x00000000,
    0x00000000, 0x00000000, 0x00000000, 0x00000000, 0x00000000, 0x00000000, 0x00000000, 0x00000000,
    0x00000000, 0x00000000, 0x00000000, 0x00000000, 0x00000000, 0x00000000, 0x00000000, 0x00000000,
    0x00000000, 0x00000000, 0x00000000, 0x00000000, 0x00000000, 0x00000000, 0x00000000, 0x00000000,
    0x00000000, 0x00000000, 0x00000000, 0x00000000, 0x00000000, 0x00000000, 0x00000000, 0x00000000,
    0x00000000, 0x00000000, 0x00000000, 0x00000000, 0x00000000, 0x00000000, 0x00000000, 0x00000000,
    0x00000000, 0x00000000, 0x00000000, 0x00000000, 0x00000000, 0x00000000, 0x00000000, 0x00000000,
    0x00000000, 0x00000000, 0x00000000, 0x00000000, 0x00000000, 0x00000000, 0x00000000, 0x00000000,
    0x00000000, 0x00000000, 0x00000000, 0x00000000, 0x00000000, 0x00000000, 0x00000000, 0x00000000,
    0x00000000, 0x00000000, 0x00000000, 0x00000000, 0x00000000, 0x00000000, 0x00000000, 0x00000000,
    0x00000000, 0x00000000, 0x00000000, 0x00000000, 0x00000000, 0x00000000, 0x00000000, 0x00000000,
    0x00000000, 0x00000000, 0x00000000, 0x00000000, 0x00000000, 0x00000000, 0x00000000, 0x00000000,
    0x00000000, 0x00000000, 0x00000000, 0x00000000, 0x00000000, 0x00000000, 0x00000000, 0x00000000,
    0x00000000, 0x00000000, 0x00000000, 0x00000000, 0x00000000, 0x00000000, 0x00000000, 0x00000000,
    0x00000000, 0x00000000, 0x00000000, 0x00000000, 0x00000000, 0x00000000, 0x00000000, 0x00000000,
    0x00000000, 0x00000000, 0x00000000, 0x00000000, 0x00000000, 0x00000000, 0x00000000, 0x00000000,
    0x00000000, 0x00000000, 0x00000000, 0x00000000, 0x00000000, 0x00000000, 0x00000000, 0x00000000,
    0x00000000, 0x00000000, 0x00000000, 0x00000000, 0x00000000, 0x00000000, 0x00000000, 0x00000000,
    0x00000000, 0x00000000, 0x00000000, 0x00000000, 0x00000000, 0x00000000, 0x00000000, 0x00000000,
    0x00000000, 0x00000000, 0x00000000, 0x00000000, 0x00000000, 0x00000000, 0x00000000, 0x00000000,
    0x00000000, 0x00000000, 0x00000000, 0x00000000, 0x00000000, 0x00000000, 0x00000000, 0x00000000,
    0x00000000, 0x00000000, 0x00000000, 0x00000000, 0x00000000, 0x00000000, 0x00000000, 0x00000000,
    0x00000000, 0x00000000, 0x00000000, 0x00000000, 0x00000000, 0x00000000, 0x00000000, 0x00000000,
    0x00000000, 0x00000000, 0x00000000, 0x00000000, 0x00000000, 0x00000000, 0x00000000, 0x00000000,
    0x00000000, 0x00000000, 0x00000000, 0x00000000, 0x00000000, 0x00000000, 0x00000000, 0x00000000,
    0x00000000, 0x00000000, 0x00000000, 0x00000000, 0x00000000, 0x00000000, 0x00000000, 0x00000000,
    0x00000000, 0x00000000, 0x00000000, 0x00000000, 0x00000000, 0x00000000, 0x00000000, 0x00000000,
    0x00000000, 0x00000000, 0x00000000, 0x00000000, 0x00000000, 0x00000000, 0x00000000, 0x00000000,
    0x00000000, 0x00000000, 0x00000000, 0x00000000, 0x00000000, 0x00000000, 0x00000000, 0x00000000,
    0x00000000, 0x00000000, 0x00000000, 0x00000000, 0x00000000, 0x00000000, 0x00000000, 0x00000000,
    0x00000000, 0x00000000, 0x00000000, 0x00000000, 0x00000000, 0x00000000, 0x00000000, 0x00000000,
    0x00000000, 0x00000000, 0x00000000, 0x00000000, 0x00000000, 0x00000000, 0x00000000, 0x00000000,
    0x00000000, 0x00000000, 0x00000000, 0x00000000, 0x00000000, 0x00000000, 0x00000000, 0x00000000,
    0x00000000, 0x00000000, 0x00000000, 0x00000000, 0x00000000, 0x00000000, 0x00000000, 0x00000000,
    0x00000000, 0x00000000, 0x00000000, 0x00000000, 0x00000000, 0x00000000, 0x00000000, 0x00000000,
    0x00000000, 0x00000000, 0x00000000, 0x00000000, 0x00000000, 0x00000000, 0x00000000, 0x00000000,
    0x00000000, 0x00000000, 0x00000000, 0x00000000, 0x00000000, 0x00000000, 0x00000000, 0x00000000,
    0x00000000, 0x00000000, 0x00000000, 0x00000000, 0x00000000, 0x00000000, 0x00000000, 0x00000000,
    0x00000000, 0x00000000, 0x00000000, 0x00000000, 0x00000000, 0x00000000, 0x00000000, 0x00000000,
    0x00000000, 0x00000000, 0x00000000, 0x00000000, 0x00000000, 0x00000000, 0x00000000, 0x00000000,
    0x00000000, 0x00000000, 0x00000000, 0x00000000, 0x00000000, 0x00000000, 0x00000000, 0x00000000,
    0x00000000, 0x00000000, 0x00000000, 0x00000000, 0x00000000, 0x00000000, 0x00000000, 0x00000000,
    0x00000000, 0x00000000, 0x00000000, 0x00000000, 0x00000000, 0x00000000, 0x00000000, 0x00000000,
    0x00000000, 0x00000000, 0x00000000, 0x00000000, 0x00000000, 0x00000000, 0x00000000, 0x00000000,
    0x00000000, 0x00000000, 0x00000000, 0x00000000, 0x00000000, 0x00000000, 0x00000000, 0x00000000,
    0x00000000, 0x00000000, 0x00000000, 0x00000000, 0x00000000, 0x00000000, 0x00000000, 0x00000000,
    0x00000000, 0x00000000, 0x00000000, 0x00000000, 0x00000000, 0x00000000, 0x00000000, 0x00000000,
    0x00000000, 0x00000000, 0x00000000, 0x00000000, 0x00000000, 0x00000000, 0x00000000, 0x00000000,
    0x00000000, 0x00000000, 0x00000000, 0x00000000, 0x00000000, 0x00000000, 0x00000000, 0x00000000,
    0x00000000, 0x00000000, 0x00000000, 0x00000000, 0x00000000, 0x00000000, 0x00000000, 0x00000000,
    0x00000000, 0x00000000, 0x00000000, 0x00000000, 0x00000000, 0x00000000, 0x00000000, 0x00000000,
    0x00000000, 0x00000000, 0x00000000, 0x00000000, 0x00000000, 0x00000000, 0x00000000, 0x00000000,
    0x00000000, 0x00000000, 0x00000000, 0x00000000, 0x00000000, 0x00000000, 0x00000000, 0x00000000,
    0x00000000, 0x00000000, 0x00000000, 0x00000000, 0x00000000, 0x00000000, 0x00000000, 0x00000000,
    0x00000000, 0x00000000, 0x00000000, 0x00000000, 0x00000000, 0x00000000, 0x00000000, 0x00000000,
    0x00000000, 0x00000000, 0x00000000, 0x00000000, 0x00000000, 0x00000000, 0x00000000, 0x00000000,
    0x00000000, 0x00000000, 0x00000000, 0x00000000, 0x00000000, 0x00000000, 0x00000000, 0x00000000,
    0x00000000, 0x00000000, 0x00000000, 0x00000000, 0x00000000, 0x00000000, 0x00000000, 0x00000000,
    0x00000000, 0x00000000, 0x00000000, 0x00000000, 0x00000000, 0x00000000, 0x00000000, 0x00000000,
    0x00000000, 0x00000000, 0x00000000, 0x00000000, 0x00000000, 0x00000000, 0x00000000, 0x00000000,
    0x00000000, 0x00000000, 0x00000000, 0x00000000, 0x00000000, 0x00000000, 0x00000000, 0x00000000,
    0x00000000, 0x00000000, 0x00000000, 0x00000000, 0x00000000, 0x00000000, 0x00000000, 0x00000000,
    0x00000000, 0x00000000, 0x00000000, 0x00000000, 0x00000000, 0x00000000, 0x00000000, 0x00000000,
    0x00000000, 0x00000000, 0x00000000, 0x00000000, 0x00000000, 0x00000000, 0x00000000, 0x00000000,
    0x00000000, 0x00000000, 0x00000000, 0x00000000, 0x00000000, 0x00000000, 0x00000000, 0x00000000,
    0x00000000, 0x00000000, 0x00000000, 0x00000000, 0x00000000, 0x00000000, 0x00000000, 0x00000000,
    0x00000000, 0x00000000, 0x00000000, 0x00000000, 0x00000000, 0x00000000, 0x00000000, 0x00000000,
    0x00000000, 0x00000000, 0x00000000, 0x00000000, 0x00000000, 0x00000000, 0x00000000, 0x00000000,
    0x00000000, 0x00000000, 0x00000000, 0x00000000, 0x00000000, 0x00000000, 0x00000000, 0x00000000,
    0x00000000, 0x00000000, 0x00000000, 0x00000000, 0x00000000, 0x00000000, 0x00000000, 0x00000000,
    0x00000000, 0x00000000, 0x00000000, 0x00000000, 0x00000000, 0x00000000, 0x00000000, 0x00000000,
    0x00000000, 0x00000000, 0x00000000, 0x00000000, 0x00000000, 0x00000000, 0x00000000, 0x00000000,
    0x00000000, 0x00000000, 0x00000000, 0x00000000, 0x00000000, 0x00000000, 0x00000000, 0x00000000,
    0x00000000, 0x00000000, 0x00000000, 0x00000000, 0x00000000, 0x00000000, 0x00000000, 0x00000000,
    0x00000000, 0x00000000, 0x00000000, 0x00000000, 0x00000000, 0x00000000, 0x00000000, 0x00000000,
    0x00000000, 0x00000000, 0x00000000, 0x00000000, 0x00000000, 0x00000000, 0x00000000, 0x00000000,
    0x00000000, 0x00000000, 0x00000000, 0x00000000, 0x00000000, 0x00000000, 0x00000000, 0x00000000,
    0x00000000, 0x00000000, 0x00000000, 0x00000000, 0x00000000, 0x00000000, 0x00000000, 0x00000000,
    0x00000000, 0x00000000, 0x00000000, 0x00000000, 0x00000000, 0x00000000, 0x00000000, 0x00000000,
    0x00000000, 0x00000000, 0x00000000, 0x00000000, 0x00000000, 0x00000000, 0x00000000, 0x00000000,
    0x00000000, 0x00000000, 0x00000000, 0x00000000, 0x00000000, 0x00000000, 0x00000000, 0x00000000,
    0x00000000, 0x00000000, 0x00000000, 0x00000000, 0x00000000, 0x00000000, 0x00000000, 0x00000000,
    0x00000000, 0x00000000, 0x00000000, 0x00000000, 0x00000000, 0x00000000, 0x00000000, 0x00000000,
    0x00000000, 0x00000000, 0x00000000, 0x00000000, 0x00000000, 0x00000000, 0x00000000, 0x00000000,
    0x00000000, 0x00000000, 0x00000000, 0x00000000, 0x00000000, 0x00000000, 0x00000000, 0x00000000,
    0x00000000, 0x00000000, 0x00000000, 0x00000000, 0x00000000, 0x00000000, 0x00000000, 0x00000000,
    0x00000000, 0x00000000, 0x00000000, 0x00000000, 0x00000000, 0x00000000, 0x00000000, 0x00000000,
    0x00000000, 0x00000000, 0x00000000, 0x00000000, 0x00000000, 0x00000000, 0x00000000, 0x00000000,
    0x00000000, 0x00000000, 0x00000000, 0x00000000, 0x00000000, 0x00000000, 0x00000000, 0x00000000,
    0x00000000, 0x00000000, 0x00000000, 0x00000000, 0x00000000, 0x00000000, 0x00000000, 0x00000000,
    0x00000000, 0x00000000, 0x00000000, 0x00000000, 0x00000000, 0x00000000, 0x00000000, 0x00000000,
    0x00000000, 0x00000000, 0x00000000, 0x00000000, 0x00000000, 0x00000000, 0x00000000, 0x00000000,
    0x00000000, 0x00000000, 0x00000000, 0x00000000, 0x00000000, 0x00000000, 0x00000000, 0x00000000,
    0x00000000, 0x00000000, 0x00000000, 0x00000000, 0x00000000, 0x00000000, 0x00000000, 0x00000000,
    0x00000000, 0x00000000, 0x00000000, 0x00000000, 0x00000000, 0x00000000, 0x00000000, 0x00000000,
    0x00000000, 0x00000000, 0x00000000, 0x00000000, 0x00000000, 0x00000000, 0x00000000, 0x00000000,
    0x00000000, 0x00000000, 0x00000000, 0x00000000, 0x00000000, 0x00000000, 0x00000000, 0x00000000,
    0x00000000, 0x00000000, 0x00000000, 0x00000000, 0x00000000, 0x00000000, 0x00000000, 0x00000000,
    0x00000000, 0x00000000, 0x00000000, 0x00000000, 0x00000000, 0x00000000, 0x00000000, 0x00000000,
    0x00000000, 0x00000000, 0x00000000, 0x00000000, 0x00000000, 0x00000000, 0x00000000, 0x00000000,
    0x00000000, 0x00000000, 0x00000000, 0x00000000, 0x00000000, 0x00000000, 0x00000000, 0x00000000,
    0x00000000, 0x00000000, 0x00000000, 0x00000000, 0x00000000, 0x00000000, 0x00000000, 0x00000000,
    0x00000000, 0x00000000, 0x00000000, 0x00000000, 0x00000000, 0x00000000, 0x00000000, 0x00000000,
    0x00000000, 0x00000000, 0x00000000, 0x00000000, 0x00000000, 0x00000000, 0x00000000, 0x00000000,
    0x00000000, 0x00000000, 0x00000000, 0x00000000, 0x00000000, 0x00000000, 0x00000000, 0x00000000,
    0x00000000, 0x00000000, 0x00000000, 0x00000000, 0x00000000, 0x00000000, 0x00000000, 0x00000000,
    0x00000000, 0x00000000, 0x00000000, 0x00000000, 0x00000000, 0x00000000, 0x00000000, 0x00000000,
    0x00000000, 0x00000000, 0x00000000, 0x00000000, 0x00000000, 0x00000000, 0x00000000, 0x00000000,
    0x00000000, 0x00000000, 0x00000000, 0x00000000, 0x00000000, 0x00000000, 0x00000000, 0x00000000,
    0x00000000, 0x00000000, 0x00000000, 0x00000000, 0x00000000, 0x00000000, 0x00000000, 0x00000000,
    0x00000000, 0x00000000, 0x00000000, 0x00000000, 0x00000000, 0x00000000, 0x00000000, 0x00000000,
    0x00000000, 0x00000000, 0x00000000, 0x00000000, 0x00000000, 0x00000000, 0x00000000, 0x00000000,
    0x00000000, 0x00000000, 0x00000000, 0x00000000, 0x00000000, 0x00000000, 0x00000000, 0x00000000,
    0x00000000, 0x00000000, 0x00000000, 0x00000000, 0x00000000, 0x00000000, 0x00000000, 0x00000000,
    0x00000000, 0x00000000, 0x00000000, 0x00000000, 0x00000000, 0x00000000, 0x00000000, 0x00000000,
    0x00000000, 0x00000000, 0x00000000, 0x00000000, 0x00000000, 0x00000000, 0x00000000, 0x00000000,
    0x00000000, 0x00000000, 0x00000000, 0x00000000, 0x00000000, 0x00000000, 0x00000000, 0x00000000,
    0x00000000, 0x00000000, 0x00000000, 0x00000000, 0x00000000, 0x00000000, 0x00000000, 0x00000000,
    0x00000000, 0x00000000, 0x00000000, 0x00000000, 0x00000000, 0x00000000, 0x00000000, 0x00000000,
    0x00000000, 0x00000000, 0x00000000, 0x00000000, 0x00000000, 0x00000000, 0x00000000, 0x00000000,
    0x00000000, 0x00000000, 0x00000000, 0x00000000, 0x00000000, 0x00000000, 0x00000000, 0x00000000,
    0x00000000, 0x00000000, 0x00000000, 0x00000000, 0x00000000, 0x00000000, 0x00000000, 0x00000000,
    0x00000000, 0x00000000, 0x00000000, 0x00000000, 0x00000000, 0x00000000, 0x00000000, 0x00000000,
    0x00000000, 0x00000000, 0x00000000, 0x00000000, 0x00000000, 0x00000000, 0x00000000, 0x00000000,
    0x00000000, 0x00000000, 0x00000000, 0x00000000, 0x00000000, 0x00000000, 0x00000000, 0x00000000,
    0x00000000, 0x00000000, 0x00000000, 0x00000000, 0x00000000, 0x00000000, 0x00000000, 0x00000000,
    0x00000000, 0x00000000, 0x00000000, 0x00000000, 0x00000000, 0x00000000, 0x00000000, 0x00000000,
    0x00000000, 0x00000000, 0x00000000, 0x00000000, 0x00000000, 0x00000000, 0x00000000, 0x00000000,
    0x00000000, 0x00000000, 0x00000000, 0x00000000, 0x00000000, 0x00000000, 0x00000000, 0x00000000,
    0x00000000, 0x00000000, 0x00000000, 0x00000000, 0x00000000, 0x00000000, 0x00000000, 0x00000000,
    0x00000000, 0x00000000, 0x00000000, 0x00000000, 0x00000000, 0x00000000, 0x00000000, 0x00000000,
    0x00000000, 0x00000000, 0x00000000, 0x00000000, 0x00000000, 0x00000000, 0x00000000, 0x00000000,
    0x00000000, 0x00000000, 0x00000000, 0x00000000, 0x00000000, 0x00000000, 0x00000000, 0x00000000,
    0x00000000, 0x00000000, 0x00000000, 0x00000000, 0x00000000, 0x00000000, 0x00000000, 0x00000000,
    0x00000000, 0x00000000, 0x00000000, 0x00000000, 0x00000000, 0x00000000, 0x00000000, 0x00000000,
    0x00000000, 0x00000000, 0x00000000, 0x00000000, 0x00000000, 0x00000000, 0x00000000, 0x00000000,
    0x00000000, 0x00000000, 0x00000000, 0x00000000, 0x00000000, 0x00000000, 0x00000000, 0x00000000,
    0x00000000, 0x00000000, 0x00000000, 0x00000000, 0x00000000, 0x00000000, 0x00000000, 0x00000000,
    0x00000000, 0x00000000, 0x00000000, 0x00000000, 0x00000000, 0x00000000, 0x00000000, 0x00000000,
    0x00000000, 0x00000000, 0x00000000, 0x00000000, 0x00000000, 0x00000000, 0x00000000, 0x00000000,
    0x00000000, 0x00000000, 0x00000000, 0x00000000, 0x00000000, 0x00000000, 0x00000000, 0x00000000,
    0x00000000, 0x00000000, 0x00000000, 0x00000000, 0x00000000, 0x00000000, 0x00000000, 0x00000000,
    0x00000000, 0x00000000, 0x00000000, 0x00000000, 0x00000000, 0x00000000, 0x00000000, 0x00000000,
    0x00000000, 0x00000000, 0x00000000, 0x00000000, 0x00000000, 0x00000000, 0x00000000, 0x00000000,
    0x00000000, 0x00000000, 0x00000000, 0x00000000, 0x00000000, 0x00000000, 0x00000000, 0x00000000,
    0x00000000, 0x00000000, 0x00000000, 0x00000000, 0x00000000, 0x00000000, 0x00000000, 0x00000000,
    0x00000000, 0x00000000, 0x00000000, 0x00000000, 0x00000000, 0x00000000, 0x00000000, 0x00000000,
    0x00000000, 0x00000000, 0x00000000, 0x00000000, 0x00000000, 0x00000000, 0x00000000, 0x00000000,
    0x00000000, 0x00000000, 0x00000000, 0x00000000, 0x00000000, 0x00000000, 0x00000000, 0x00000000,
    0x00000000, 0x00000000, 0x00000000, 0x00000000, 0x00000000, 0x00000000, 0x00000000, 0x00000000,
    0x00000000, 0x00000000, 0x00000000, 0x00000000, 0x00000000, 0x00000000, 0x00000000, 0x00000000,
    0x00000000, 0x00000000, 0x00000000, 0x00000000, 0x00000000, 0x00000000, 0x00000000, 0x00000000,
    0x00000000, 0x00000000, 0x00000000, 0x00000000, 0x00000000, 0x00000000, 0x00000000, 0x00000000,
    0x00000000, 0x00000000, 0x00000000, 0x00000000, 0x00000000, 0x00000000, 0x00000000, 0x00000000,
    0x00000000, 0x00000000, 0x00000000, 0x00000000, 0x00000000, 0x00000000, 0x00000000, 0x00000000,
    0x00000000, 0x00000000, 0x00000000, 0x00000000, 0x00000000, 0x00000000, 0x00000000, 0x00000000,
    0x00000000, 0x00000000, 0x00000000, 0x00000000, 0x00000000, 0x00000000, 0x00000000, 0x00000000,
    0x00000000, 0x00000000, 0x00000000, 0x00000000, 0x00000000, 0x00000000, 0x00000000, 0x00000000,
    0x00000000, 0x00000000, 0x00000000, 0x00000000, 0x00000000, 0x00000000, 0x00000000, 0x00000000,
    0x00000000, 0x00000000, 0x00000000, 0x00000000, 0x00000000, 0x00000000, 0x00000000, 0x00000000,
    0x00000000, 0x00000000, 0x00000000, 0x00000000, 0x00000000, 0x00000000, 0x00000000, 0x00000000,
    0x00000000, 0x00000000, 0x00000000, 0x00000000, 0x00000000, 0x00000000, 0x00000000, 0x00000000,
    0x00000000, 0x00000000, 0x00000000, 0x00000000, 0x00000000, 0x00000000, 0x00000000, 0x00000000,
    0x00000000, 0x00000000, 0x00000000, 0x00000000, 0x00000000, 0x00000000, 0x00000000, 0x00000000,
    0x00000000, 0x00000000, 0x00000000, 0x00000000, 0x00000000, 0x00000000, 0x00000000, 0x00000000,
    0x00000000, 0x00000000, 0x00000000, 0x00000000, 0x00000000, 0x00000000, 0x00000000, 0x00000000,
    0x00000000, 0x00000000, 0x00000000, 0x00000000, 0x00000000, 0x00000000, 0x00000000, 0x00000000,
    0x00000000, 0x00000000, 0x00000000, 0x00000000, 0x00000000, 0x00000000, 0x00000000, 0x00000000,
    0x00000000, 0x00000000, 0x00000000, 0x00000000, 0x00000000, 0x00000000, 0x00000000, 0x00000000,
    0x00000000, 0x00000000, 0x00000000, 0x00000000, 0x00000000, 0x00000000, 0x00000000, 0x00000000,
    0x00000000, 0x00000000, 0x00000000, 0x00000000, 0x00000000, 0x00000000, 0x00000000, 0x00000000,
    0x00000000, 0x00000000, 0x00000000, 0x00000000, 0x00000000, 0x00000000, 0x00000000, 0x00000000,
    0x00000000, 0x00000000, 0x00000000, 0x00000000, 0x00000000, 0x00000000, 0x00000000, 0x00000000,
    0x00000000, 0x00000000, 0x00000000, 0x00000000, 0x00000000, 0x00000000, 0x00000000, 0x00000000,
    0x00000000, 0x00000000, 0x00000000, 0x00000000, 0x00000000, 0x00000000, 0x00000000, 0x00000000,
    0x00000000, 0x00000000, 0x00000000, 0x00000000, 0x00000000, 0x00000000, 0x00000000, 0x00000000,
    0x00000000, 0x00000000, 0x00000000, 0x00000000, 0x00000000, 0x00000000, 0x00000000, 0x00000000,
    0x00000000, 0x00000000, 0x00000000, 0x00000000, 0x00000000, 0x00000000, 0x00000000, 0x00000000,
    0x00000000, 0x00000000, 0x00000000, 0x00000000, 0x00000000, 0x00000000, 0x00000000, 0x00000000,
    0x00000000, 0x00000000, 0x00000000, 0x00000000, 0x00000000, 0x00000000, 0x00000000, 0x00000000,
    0x00000000, 0x00000000, 0x00000000, 0x00000000, 0x00000000, 0x00000000, 0x00000000, 0x00000000,
    0x00000000, 0x00000000, 0x00000000, 0x00000000, 0x00000000, 0x00000000, 0x00000000, 0x00000000,
    0x00000000, 0x00000000, 0x00000000, 0x00000000, 0x00000000, 0x00000000, 0x00000000, 0x00000000,
    0x00000000, 0x00000000, 0x00000000, 0x00000000, 0x00000000, 0x00000000, 0x00000000, 0x00000000,
    0x00000000, 0x00000000, 0x00000000, 0x00000000, 0x00000000, 0x00000000, 0x00000000, 0x00000000,
    0x00000000, 0x00000000, 0x00000000, 0x00000000, 0x00000000, 0x00000000, 0x00000000, 0x00000000,
    0x00000000, 0x00000000, 0x00000000, 0x00000000, 0x00000000, 0x00000000, 0x00000000, 0x00000000,
    0x00000000, 0x00000000, 0x00000000, 0x00000000, 0x00000000, 0x00000000, 0x00000000, 0x00000000,
    0x00000000, 0x00000000, 0x00000000, 0x00000000, 0x00000000, 0x00000000, 0x00000000, 0x00000000,
    0x00000000, 0x00000000, 0x00000000, 0x00000000, 0x00000000, 0x00000000, 0x00000000, 0x00000000,
    0x00000000, 0x00000000, 0x00000000, 0x00000000, 0x00000000, 0x00000000, 0x00000000, 0x00000000,
    0x00000000, 0x00000000, 0x00000000, 0x00000000, 0x00000000, 0x00000000, 0x00000000, 0x00000000,
    0x00000000, 0x00000000, 0x00000000, 0x00000000, 0x00000000, 0x00000000, 0x00000000, 0x00000000,
    0x00000000, 0x00000000, 0x00000000, 0x00000000, 0x00000000, 0x00000000, 0x00000000, 0x00000000,
    0x00000000, 0x00000000, 0x00000000, 0x00000000, 0x00000000, 0x00000000, 0x00000000, 0x00000000,
    0x00000000, 0x00000000, 0x00000000, 0x00000000, 0x00000000, 0x00000000, 0x00000000, 0x00000000,
    0x00000000, 0x00000000, 0x00000000, 0x00000000, 0x00000000, 0x00000000, 0x00000000, 0x00000000,
    0x00000000, 0x00000000, 0x00000000, 0x00000000, 0x00000000, 0x00000000, 0x00000000, 0x00000000,
    0x00000000, 0x00000000, 0x00000000, 0x00000000, 0x00000000, 0x00000000, 0x00000000, 0x00000000,
    0x00000000, 0x00000000, 0x00000000, 0x00000000, 0x00000000, 0x00000000, 0x00000000, 0x00000000,
    0x00000000, 0x00000000, 0x00000000, 0x00000000, 0x00000000, 0x00000000, 0x00000000, 0x00000000,
    0x00000000, 0x00000000, 0x00000000, 0x00000000, 0x00000000, 0x00000000, 0x00000000, 0x00000000,
    0x00000000, 0x00000000, 0x00000000, 0x00000000, 0x00000000, 0x00000000, 0x00000000, 0x00000000,
    0x00000000, 0x00000000, 0x00000000, 0x00000000, 0x00000000, 0x00000000, 0x00000000, 0x00000000,
    0x00000000, 0x00000000, 0x00000000, 0x00000000, 0x00000000, 0x00000000, 0x00000000, 0x00000000,
    0x00000000, 0x00000000, 0x00000000, 0x00000000, 0x00000000, 0x00000000, 0x00000000, 0x00000000,
    0x00000000, 0x00000000, 0x00000000, 0x00000000, 0x00000000, 0x00000000, 0x00000000, 0x00000000,
    0x00000000, 0x00000000, 0x00000000, 0x00000000, 0x00000000, 0x00000000, 0x00000000, 0x00000000,
    0x00000000, 0x00000000, 0x00000000, 0x00000000, 0x00000000, 0x00000000, 0x00000000, 0x00000000,
    0x00000000, 0x00000000, 0x00000000, 0x00000000, 0x00000000, 0x00000000, 0x00000000, 0x00000000,
    0x00000000, 0x00000000, 0x00000000, 0x00000000, 0x00000000, 0x00000000, 0x00000000, 0x00000000,
    0x00000000, 0x00000000, 0x00000000, 0x00000000, 0x00000000, 0x00000000, 0x00000000, 0x00000000,
    0x00000000, 0x00000000, 0x00000000, 0x00000000, 0x00000000, 0x00000000, 0x00000000, 0x00000000,
    0x00000000, 0x00000000, 0x00000000, 0x00000000, 0x00000000, 0x00000000, 0x00000000, 0x00000000,
    0x00000000, 0x00000000, 0x00000000, 0x00000000, 0x00000000, 0x00000000, 0x00000000, 0x00000000,
    0x00000000, 0x00000000, 0x00000000, 0x00000000, 0x00000000, 0x00000000, 0x00000000, 0x00000000,
    0x00000000, 0x00000000, 0x00000000, 0x00000000, 0x00000000, 0x00000000, 0x00000000, 0x00000000,
    0x00000000, 0x00000000, 0x00000000, 0x00000000, 0x00000000, 0x00000000, 0x00000000, 0x00000000,
    0x00000000, 0x00000000, 0x00000000, 0x00000000, 0x00000000, 0x00000000, 0x00000000, 0x00000000,
    0x00000000, 0x00000000, 0x00000000, 0x00000000, 0x00000000, 0x00000000, 0x00000000, 0x00000000,
    0x00000000, 0x00000000, 0x00000000, 0x00000000, 0x00000000, 0x00000000, 0x00000000, 0x00000000,
    0x00000000, 0x00000000, 0x00000000, 0x00000000, 0x00000000, 0x00000000, 0x00000000, 0x00000000,
    0x00000000, 0x00000000, 0x00000000, 0x00000000, 0x00000000, 0x00000000, 0x00000000, 0x00000000,
    0x00000000, 0x00000000, 0x00000000, 0x00000000, 0x00000000, 0x00000000, 0x00000000, 0x00000000,
    0x00000000, 0x00000000, 0x00000000, 0x00000000, 0x00000000, 0x00000000, 0x00000000, 0x00000000,
    0x00000000, 0x00000000, 0x00000000, 0x00000000, 0x00000000, 0x00000000, 0x00000000, 0x00000000,
    0x00000000, 0x00000000, 0x00000000, 0x00000000, 0x00000000, 0x00000000, 0x00000000, 0x00000000,
    0x00000000, 0x00000000, 0x00000000, 0x00000000, 0x00000000, 0x00000000, 0x00000000, 0x00000000,
    0x00000000, 0x00000000, 0x00000000, 0x00000000, 0x00000000, 0x00000000, 0x00000000, 0x00000000,
    0x00000000, 0x00000000, 0x00000000, 0x00000000, 0x00000000, 0x00000000, 0x00000000, 0x00000000,
    0x00000000, 0x00000000, 0x00000000, 0x00000000, 0x00000000, 0x00000000, 0x00000000, 0x00000000,
    0x00000000, 0x00000000, 0x00000000, 0x00000000, 0x00000000, 0x00000000, 0x00000000, 0x00000000,
    0x00000000, 0x00000000, 0x00000000, 0x00000000, 0x00000000, 0x00000000, 0x00000000, 0x00000000,
    0x00000000, 0x00000000, 0x00000000, 0x00000000, 0x00000000, 0x00000000, 0x00000000, 0x00000000,
    0x00000000, 0x00000000, 0x00000000, 0x00000000, 0x00000000, 0x00000000, 0x00000000, 0x00000000,
    0x00000000, 0x00000000, 0x00000000, 0x00000000, 0x00000000, 0x00000000, 0x00000000, 0x00000000,
    0x00000000, 0x00000000, 0x00000000, 0x00000000, 0x00000000, 0x00000000, 0x00000000, 0x00000000,
    0x00000000, 0x00000000, 0x00000000, 0x00000000, 0x00000000, 0x00000000, 0x00000000, 0x00000000,
    0x00000000, 0x00000000, 0x00000000, 0x00000000, 0x00000000, 0x00000000, 0x00000000, 0x00000000,
    0x00000000, 0x00000000, 0x00000000, 0x00000000, 0x00000000, 0x00000000, 0x00000000, 0x00000000,
    0x00000000, 0x00000000, 0x00000000, 0x00000000, 0x00000000, 0x00000000, 0x00000000, 0x00000000,
    0x00000000, 0x00000000, 0x00000000, 0x00000000, 0x00000000, 0x00000000, 0x00000000, 0x00000000,
    0x00000000, 0x00000000, 0x00000000, 0x00000000, 0x00000000, 0x00000000, 0x00000000, 0x00000000,
    0x00000000, 0x00000000, 0x00000000, 0x00000000, 0x00000000, 0x00000000, 0x00000000, 0x00000000,
    0x00000000, 0x00000000, 0x00000000, 0x00000000, 0x00000000, 0x00000000, 0x00000000, 0x00000000,
    0x00000000, 0x00000000, 0x00000000, 0x00000000, 0x00000000, 0x00000000, 0x00000000, 0x00000000,
    0x00000000, 0x00000000, 0x00000000, 0x00000000, 0x00000000, 0x00000000, 0x00000000, 0x00000000,
    0x00000000, 0x00000000, 0x00000000, 0x00000000, 0x00000000, 0x00000000, 0x00000000, 0x00000000,
    0x00000000, 0x00000000, 0x00000000, 0x00000000, 0x00000000, 0x00000000, 0x00000000, 0x00000000,
    0x00000000, 0x00000000, 0x00000000, 0x00000000, 0x00000000, 0x00000000, 0x00000000, 0x00000000,
    0x00000000, 0x00000000, 0x00000000, 0x00000000, 0x00000000, 0x00000000, 0x00000000, 0x00000000,
    0x00000000, 0x00000000, 0x00000000, 0x00000000, 0x00000000, 0x00000000, 0x00000000, 0x00000000,
    0x00000000, 0x00000000, 0x00000000, 0x00000000, 0x00000000, 0x00000000, 0x00000000, 0x00000000,
    0x00000000, 0x00000000, 0x00000000, 0x00000000, 0x00000000, 0x00000000, 0x00000000, 0x00000000,
    0x00000000, 0x00000000, 0x00000000, 0x00000000, 0x00000000, 0x00000000, 0x00000000, 0x00000000,
    0x00000000, 0x00000000, 0x00000000, 0x00000000, 0x00000000, 0x00000000, 0x00000000, 0x00000000,
    0x00000000, 0x00000000, 0x00000000, 0x00000000, 0x00000000, 0x00000000, 0x00000000, 0x00000000,
    0x00000000, 0x00000000, 0x00000000, 0x00000000, 0x00000000, 0x00000000, 0x00000000, 0x00000000,
    0x00000000, 0x00000000, 0x00000000, 0x00000000, 0x00000000, 0x00000000, 0x00000000, 0x00000000,
    0x00000000, 0x00000000, 0x00000000, 0x00000000, 0x00000000, 0x00000000, 0x00000000, 0x00000000,
    0x00000000, 0x00000000, 0x00000000, 0x00000000, 0x00000000, 0x00000000, 0x00000000, 0x00000000,
    0x00000000, 0x00000000, 0x00000000, 0x00000000, 0x00000000, 0x00000000, 0x00000000, 0x00000000,
    0x00000000, 0x00000000, 0x00000000, 0x00000000, 0x00000000, 0x00000000, 0x00000000, 0x00000000,
    0x00000000, 0x00000000, 0x00000000, 0x00000000, 0x00000000, 0x00000000, 0x00000000, 0x00000000,
    0x00000000, 0x00000000, 0x00000000, 0x00000000, 0x00000000, 0x00000000, 0x00000000, 0x00000000,
    0x00000000, 0x00000000, 0x00000000, 0x00000000, 0x00000000, 0x00000000, 0x00000000, 0x00000000,
    0x00000000, 0x00000000, 0x00000000, 0x00000000, 0x00000000, 0x00000000, 0x00000000, 0x00000000,
    0x00000000, 0x00000000, 0x00000000, 0x00000000, 0x00000000, 0x00000000, 0x00000000, 0x00000000,
    0x00000000, 0x00000000, 0x00000000, 0x00000000, 0x00000000, 0x00000000, 0x00000000, 0x00000000,
    0x00000000, 0x00000000, 0x00000000, 0x00000000, 0x00000000, 0x00000000, 0x00000000, 0x00000000,
    0x00000000, 0x00000000, 0x00000000, 0x00000000, 0x00000000, 0x00000000, 0x00000000, 0x00000000,
    0x00000000, 0x00000000, 0x00000000, 0x00000000, 0x00000000, 0x00000000, 0x00000000, 0x00000000,
    0x00000000, 0x00000000, 0x00000000, 0x00000000, 0x00000000, 0x00000000, 0x00000000, 0x00000000,
    0x00000000, 0x00000000, 0x00000000, 0x00000000, 0x00000000, 0x00000000, 0x00000000, 0x00000000,
    0x00000000, 0x00000000, 0x00000000, 0x00000000, 0x00000000, 0x00000000, 0x00000000, 0x00000000,
    0x00000000, 0x00000000, 0x00000000, 0x00000000, 0x00000000, 0x00000000, 0x00000000, 0x00000000,
    0x00000000, 0x00000000, 0x00000000, 0x00000000, 0x00000000, 0x00000000, 0x00000000, 0x00000000,
    0x00000000, 0x00000000, 0x00000000, 0x00000000, 0x00000000, 0x00000000, 0x00000000, 0x00000000,
    0x00000000, 0x00000000, 0x00000000, 0x00000000, 0x00000000, 0x00000000, 0x00000000, 0x00000000,
    0x00000000, 0x00000000, 0x00000000, 0x00000000, 0x00000000, 0x00000000, 0x00000000, 0x00000000,
    0x00000000, 0x00000000, 0x00000000, 0x00000000, 0x00000000, 0x00000000, 0x00000000, 0x00000000,
    0x00000000, 0x00000000, 0x00000000, 0x00000000, 0x00000000, 0x00000000, 0x00000000, 0x00000000,
    0x00000000, 0x00000000, 0x00000000, 0x00000000, 0x00000000, 0x00000000, 0x00000000, 0x00000000,
    0x00000000, 0x00000000, 0x00000000, 0x00000000, 0x00000000, 0x00000000, 0x00000000, 0x00000000,
    0x00000000, 0x00000000, 0x00000000, 0x00000000, 0x00000000, 0x00000000, 0x00000000, 0x00000000,
    0x00000000, 0x00000000, 0x00000000, 0x00000000, 0x00000000, 0x00000000, 0x00000000, 0x00000000,
    0x00000000, 0x00000000, 0x00000000, 0x00000000, 0x00000000, 0x00000000, 0x00000000, 0x00000000,
    0x00000000, 0x00000000, 0x00000000, 0x00000000, 0x00000000, 0x00000000, 0x00000000, 0x00000000,
    0x00000000, 0x00000000, 0x00000000, 0x00000000, 0x00000000, 0x00000000, 0x00000000, 0x00000000,
    0x00000000, 0x00000000, 0x00000000, 0x00000000, 0x00000000, 0x00000000, 0x00000000, 0x00000000,
    0x00000000, 0x00000000, 0x00000000, 0x00000000, 0x00000000, 0x00000000, 0x00000000, 0x00000000,
    0x00000000, 0x00000000, 0x00000000, 0x00000000, 0x00000000, 0x00000000, 0x00000000, 0x00000000,
    0x00000000, 0x00000000, 0x00000000, 0x00000000, 0x00000000, 0x00000000, 0x00000000, 0x00000000,
    0x00000000, 0x00000000, 0x00000000, 0x00000000, 0x00000000, 0x00000000, 0x00000000, 0x00000000,
    0x00000000, 0x00000000, 0x00000000, 0x00000000, 0x00000000, 0x00000000, 0x00000000, 0x00000000,
    0x00000000, 0x00000000, 0x00000000, 0x00000000, 0x00000000, 0x00000000, 0x00000000, 0x00000000,
    0x00000000, 0x00000000, 0x00000000, 0x00000000, 0x00000000, 0x00000000, 0x00000000, 0x00000000,
    0x00000000, 0x00000000, 0x00000000, 0x00000000, 0x00000000, 0x00000000, 0x00000000, 0x00000000,
    0x00000000, 0x00000000, 0x00000000, 0x00000000, 0x00000000, 0x00000000, 0x00000000, 0x00000000,
    0x00000000, 0x00000000, 0x00000000, 0x00000000, 0x00000000, 0x00000000, 0x00000000, 0x00000000,
    0x00000000, 0x00000000, 0x00000000, 0x00000000, 0x00000000, 0x00000000, 0x00000000, 0x00000000,
    0x00000000, 0x00000000, 0x00000000, 0x00000000, 0x00000000, 0x00000000, 0x00000000, 0x00000000,
    0x00000000, 0x00000000, 0x00000000, 0x00000000, 0x00000000, 0x00000000, 0x00000000, 0x00000000,
    0x00000000, 0x00000000, 0x00000000, 0x00000000, 0x00000000, 0x00000000, 0x00000000, 0x00000000,
    0x00000000, 0x00000000, 0x00000000, 0x00000000, 0x00000000, 0x00000000, 0x00000000, 0x00000000,
    0x00000000, 0x00000000, 0x00000000, 0x00000000, 0x00000000, 0x00000000, 0x00000000, 0x00000000,
    0x00000000, 0x00000000, 0x00000000, 0x00000000, 0x00000000, 0x00000000, 0x00000000, 0x00000000,
    0x00000000, 0x00000000, 0x00000000, 0x00000000, 0x00000000, 0x00000000, 0x00000000, 0x00000000,
    0x00000000, 0x00000000, 0x00000000, 0x00000000, 0x00000000, 0x00000000, 0x00000000, 0x00000000,
    0x00000000, 0x00000000, 0x00000000, 0x00000000, 0x00000000, 0x00000000, 0x00000000, 0x00000000,
    0x00000000, 0x00000000, 0x00000000, 0x00000000, 0x00000000, 0x00000000, 0x00000000, 0x00000000,
    0x00000000, 0x00000000, 0x00000000, 0x00000000, 0x00000000, 0x00000000, 0x00000000, 0x00000000,
    0x00000000, 0x00000000, 0x00000000, 0x00000000, 0x00000000, 0x00000000, 0x00000000, 0x00000000,
    0x00000000, 0x00000000, 0x00000000, 0x00000000, 0x00000000, 0x00000000, 0x00000000, 0x00000000,
    0x00000000, 0x00000000, 0x00000000, 0x00000000, 0x00000000, 0x00000000, 0x00000000, 0x00000000,
    0x00000000, 0x00000000, 0x00000000, 0x00000000, 0x00000000, 0x00000000, 0x00000000, 0x00000000,
    0x00000000, 0x00000000, 0x00000000, 0x00000000, 0x00000000, 0x00000000, 0x00000000, 0x00000000,
    0x00000000, 0x00000000, 0x00000000, 0x00000000, 0x00000000, 0x00000000, 0x00000000, 0x00000000,
    0x00000000, 0x00000000, 0x00000000, 0x00000000, 0x00000000, 0x00000000, 0x00000000, 0x00000000,
    0x00000000, 0x00000000, 0x00000000, 0x00000000, 0x00000000, 0x00000000, 0x00000000, 0x00000000,
    0x00000000, 0x00000000, 0x00000000, 0x00000000, 0x00000000, 0x00000000, 0x00000000, 0x00000000,
    0x00000000, 0x00000000, 0x00000000, 0x00000000, 0x00000000, 0x00000000, 0x00000000, 0x00000000,
    0x00000000, 0x00000000, 0x00000000, 0x00000000, 0x00000000, 0x00000000, 0x00000000, 0x00000000,
    0x00000000, 0x00000000, 0x00000000, 0x00000000, 0x00000000, 0x00000000, 0x00000000, 0x00000000,
    0x00000000, 0x00000000, 0x00000000, 0x00000000, 0x00000000, 0x00000000, 0x00000000, 0x00000000,
    0x00000000, 0x00000000, 0x00000000, 0x00000000, 0x00000000, 0x00000000, 0x00000000, 0x00000000,
    0x00000000, 0x00000000, 0x00000000, 0x00000000, 0x00000000, 0x00000000, 0x00000000, 0x00000000,
    0x00000000, 0x00000000, 0x00000000, 0x00000000, 0x00000000, 0x00000000, 0x00000000, 0x00000000,
    0x00000000, 0x00000000, 0x00000000, 0x00000000, 0x00000000, 0x00000000, 0x00000000, 0x00000000,
    0x00000000, 0x00000000, 0x00000000, 0x00000000, 0x00000000, 0x00000000, 0x00000000, 0x00000000,
    0x00000000, 0x00000000, 0x00000000, 0x00000000, 0x00000000, 0x00000000, 0x00000000, 0x00000000,
    0x00000000, 0x00000000, 0x00000000, 0x00000000, 0x00000000, 0x00000000, 0x00000000, 0x00000000,
    0x00000000, 0x00000000, 0x00000000, 0x00000000, 0x00000000, 0x00000000, 0x00000000, 0x00000000,
    0x00000000, 0x00000000, 0x00000000, 0x00000000, 0x00000000, 0x00000000, 0x00000000, 0x00000000,
    0x00000000, 0x00000000, 0x00000000, 0x00000000, 0x00000000, 0x00000000, 0x00000000, 0x00000000,
    0x00000000, 0x00000000, 0x00000000, 0x00000000, 0x00000000, 0x00000000, 0x00000000, 0x00000000,
    0x00000000, 0x00000000, 0x00000000, 0x00000000, 0x00000000, 0x00000000, 0x00000000, 0x00000000,
    0x00000000, 0x00000000, 0x00000000, 0x00000000, 0x00000000, 0x00000000, 0x00000000, 0x00000000,
    0x00000000, 0x00000000, 0x00000000, 0x00000000, 0x00000000, 0x00000000, 0x00000000, 0x00000000,
    0x00000000, 0x00000000, 0x00000000, 0x00000000, 0x00000000, 0x00000000, 0x00000000, 0x00000000,
    0x00000000, 0x00000000, 0x00000000, 0x00000000, 0x00000000, 0x00000000, 0x00000000, 0x00000000,
    0x00000000, 0x00000000, 0x00000000, 0x00000000, 0x00000000, 0x00000000, 0x00000000, 0x00000000,
    0x00000000, 0x00000000, 0x00000000, 0x00000000, 0x00000000, 0x00000000, 0x00000000, 0x00000000,
    0x00000000, 0x00000000, 0x00000000, 0x00000000, 0x00000000, 0x00000000, 0x00000000, 0x00000000,
    0x00000000, 0x00000000, 0x00000000, 0x00000000, 0x00000000, 0x00000000, 0x00000000, 0x00000000,
    0x00000000, 0x00000000, 0x00000000, 0x00000000, 0x00000000, 0x00000000, 0x00000000, 0x00000000,
    0x00000000, 0x00000000, 0x00000000, 0x00000000, 0x00000000, 0x00000000, 0x00000000, 0x00000000,
    0x00000000, 0x00000000, 0x00000000, 0x00000000, 0x00000000, 0x00000000, 0x00000000, 0x00000000,
    0x00000000, 0x00000000, 0x00000000, 0x00000000, 0x00000000, 0x00000000, 0x00000000, 0x00000000,
    0x00000000, 0x00000000, 0x00000000, 0x00000000, 0x00000000, 0x00000000, 0x00000000, 0x00000000,
    0x00000000, 0x00000000, 0x00000000, 0x00000000, 0x00000000, 0x00000000, 0x00000000, 0x00000000,
    0x00000000, 0x00000000, 0x00000000, 0x00000000, 0x00000000, 0x00000000, 0x00000000, 0x00000000,
    0x00000000, 0x00000000, 0x00000000, 0x00000000, 0x00000000, 0x00000000, 0x00000000, 0x00000000,
    0x00000000, 0x00000000, 0x00000000, 0x00000000, 0x00000000, 0x00000000, 0x00000000, 0x00000000,
    0x00000000, 0x00000000, 0x00000000, 0x00000000, 0x00000000, 0x00000000, 0x00000000, 0x00000000,
    0x00000000, 0x00000000, 0x00000000, 0x00000000, 0x00000000, 0x00000000, 0x00000000, 0x00000000,
    0x00000000, 0x00000000, 0x00000000, 0x00000000, 0x00000000, 0x00000000, 0x00000000, 0x00000000,
    0x00000000, 0x00000000, 0x00000000, 0x00000000, 0x00000000, 0x00000000, 0x00000000, 0x00000000,
    0x00000000, 0x00000000, 0x00000000, 0x00000000, 0x00000000, 0x00000000, 0x00000000, 0x00000000,
    0x00000000, 0x00000000, 0x00000000, 0x00000000, 0x00000000, 0x00000000, 0x00000000, 0x00000000,
    0x00000000, 0x00000000, 0x00000000, 0x00000000, 0x00000000, 0x00000000, 0x00000000, 0x00000000,
    0x00000000, 0x00000000, 0x00000000, 0x00000000, 0x00000000, 0x00000000, 0x00000000, 0x00000000,
    0x00000000, 0x00000000, 0x00000000, 0x00000000, 0x00000000, 0x00000000, 0x00000000, 0x00000000,
    0x00000000, 0x00000000, 0x00000000, 0x00000000, 0x00000000, 0x00000000, 0x00000000, 0x00000000,
    0x00000000, 0x00000000, 0x00000000, 0x00000000, 0x00000000, 0x00000000, 0x00000000, 0x00000000,
    0x00000000, 0x00000000, 0x00000000, 0x00000000, 0x00000000, 0x00000000, 0x00000000, 0x00000000,
    0x00000000, 0x00000000, 0x00000000, 0x00000000, 0x00000000, 0x00000000, 0x00000000, 0x00000000,
    0x00000000, 0x00000000, 0x00000000, 0x00000000, 0x00000000, 0x00000000, 0x00000000, 0x00000000,
    0x00000000, 0x00000000, 0x00000000, 0x00000000, 0x00000000, 0x00000000, 0x00000000, 0x00000000,
    0x00000000, 0x00000000, 0x00000000, 0x00000000, 0x00000000, 0x00000000, 0x00000000, 0x00000000,
    0x00000000, 0x00000000, 0x00000000, 0x00000000, 0x00000000, 0x00000000, 0x00000000, 0x00000000,
    0x00000000, 0x00000000, 0x00000000, 0x00000000, 0x00000000, 0x00000000, 0x00000000, 0x00000000,
    0x00000000, 0x00000000, 0x00000000, 0x00000000, 0x00000000, 0x00000000, 0x00000000, 0x00000000,
    0x00000000, 0x00000000, 0x00000000, 0x00000000, 0x00000000, 0x00000000, 0x00000000, 0x00000000,
    0x00000000, 0x00000000, 0x00000000, 0x00000000, 0x00000000, 0x00000000, 0x00000000, 0x00000000,
    0x0e025a12, 0x0e025a02, 0x0e091012, 0x0e091002, 0x0e095812, 0x0e095802, 0x0e095512, 0x0e095502,
    0x0e0a2812, 0x0e0a2802, 0x0e1a1012, 0x0e1a1002, 0x0e1a5812, 0x0e1a5802, 0x0e1a5512, 0x0e1a5502,
    0x0e1a1c12, 0x0e1a1c02, 0x0e1a6012, 0x0e1a6002, 0x0e212412, 0x0e212402, 0x0e212312, 0x0e212302,
    0x0e216012, 0x0e216002, 0x0e216312, 0x0e216302, 0x0e212f12, 0x0e212f02, 0x0e231012, 0x0e231002,
    0x0e251712, 0x0e251702, 0x0e2c1012, 0x0e2c1002, 0x0e2c5812, 0x0e2c5802, 0x0e2c1312, 0x0e2c1302,
    0x0e2c1c12, 0x0e2c1c02, 0x0e2c6112, 0x0e2c6102, 0x0e326312, 0x0e326302, 0x0e321f12, 0x0e321f02,
    0x0e360e12, 0x0e360e02, 0x0e365812, 0x0e365802, 0x0e365512, 0x0e365502, 0x0e485812, 0x0e485802,
    0x0e486e12, 0x0e486e02, 0x0e485512, 0x0e485502, 0x0e486012, 0x0e486002, 0x0e510e12, 0x0e510e02,
    0x0e511012, 0x0e511002, 0x0e515812, 0x0e515802, 0x0e701012, 0x0e701002, 0x0e705812, 0x0e705802,
    0x0e705512, 0x0e705502, 0x0e706012, 0x0e706002, 0x0e7c2512, 0x0e7c2502, 0x0e7c2a12, 0x0e7c2a02,
    0x0e7c2412, 0x0e7c2402, 0x0e7c2312, 0x0e7c2302, 0x0e7e0e12, 0x0e7e0e02, 0x0e7e1012, 0x0e7e1002,
    0x0e8a1012, 0x0e8a1002, 0x0e8a5812, 0x0e8a5802, 0x0e8a6e12, 0x0e8a6e02, 0x0e8a5512, 0x0e8a5502,
    0x0e911012, 0x0e911002, 0x0e915812, 0x0e915802, 0x0e911d12, 0x0e911d02, 0x0e912212, 0x0e912202,
    0x0e916812, 0x0e916802, 0x0e991012, 0x0e991002, 0x0e995812, 0x0e995802, 0x0e995512, 0x0e995502,
    0x0e996012, 0x0e996002, 0x0e9f5912, 0x0e9f5902, 0x0e9f6312, 0x0e9f6302, 0x0e9f5a12, 0x0e9f5a02,
    0x0e9f2512, 0x0e9f2502, 0x0e9f2812, 0x0e9f2802, 0x0ea21912, 0x0ea21902, 0x0ea25812, 0x0ea25802,
    0x0ea40f12, 0x0ea40f02, 0x0ea40e12, 0x0ea40e02, 0x0ea41312, 0x0ea41302, 0x0ea41012, 0x0ea41002,
    0x0ea45812, 0x0ea45802, 0x0ea61012, 0x0ea61002, 0x0ea61312, 0x0ea61302, 0x0ea71012, 0x0ea71002,
    0x0ea91212, 0x0ea91202, 0x0ea95812, 0x0ea95802, 0x0ea95512, 0x0ea95502, 0x0e2c5502, 0x0e991302,
    0x0ea41a02, 0x0ea71a02, 0x0e026902, 0x00000000, 0x00000000, 0x00000000, 0x00000000, 0x00000000,
    0x0e025912, 0x0e025902, 0x0e024312, 0x0e024302, 0x0e021e12, 0x0e021e02, 0x0e021f12, 0x0e021f02,
    0x0e025512, 0x0e025502, 0x0e022912, 0x0e022902, 0x0e026a12, 0x0e026a02, 0x0e022112, 0x0e022102,
    0x0e022212, 0x0e022202, 0x0e025812, 0x0e025802, 0x0e022c12, 0x0e022c02, 0x0e026d12, 0x0e026d02,
    0x0e215812, 0x0e215802, 0x0e214312, 0x0e214302, 0x0e211912, 0x0e211902, 0x0e211e12, 0x0e211e02,
    0x0e211f12, 0x0e211f02, 0x0e215512, 0x0e215502, 0x0e212912, 0x0e212902, 0x0e216a12, 0x0e216a02,
    0x0e324312, 0x0e324302, 0x0e325812, 0x0e325802, 0x0e7c5812, 0x0e7c5802, 0x0e7c4312, 0x0e7c4302,
    0x0e7c1e12, 0x0e7c1e02, 0x0e7c1f12, 0x0e7c1f02, 0x0e7c5512, 0x0e7c5502, 0x0e7c2912, 0x0e7c2902,
    0x0e7c6a12, 0x0e7c6a02, 0x0e7c6012, 0x0e7c6002, 0x0e7c6112, 0x0e7c6102, 0x0e7c9512, 0x0e7c9502,
    0x0e7c6912, 0x0e7c6902, 0x0e7caa12, 0x0e7caa02, 0x0e9f5812, 0x0e9f5802, 0x0e9f4312, 0x0e9f4302,
    0x0e9f6012, 0x0e9f6002, 0x0e9f6112, 0x0e9f6102, 0x0e9f9512, 0x0e9f9502, 0x0e9f6912, 0x0e9f6902,
    0x0e9faa12, 0x0e9faa02, 0x0ea70f12, 0x0ea70f02, 0x0ea75812, 0x0ea75802, 0x0ea74412, 0x0ea74402,
