/* Copyright (c) Mark Harmstone 2024
 *
 * This file is part of tdscpp.
 *
 * tdscpp is free software: you can redistribute it and/or modify
 * it under the terms of the GNU Lesser General Public Licence as published by
 * the Free Software Foundation, either version 3 of the Licence, or
 * (at your option) any later version.
 *
 * tdscpp is distributed in the hope that it will be useful,
 * but WITHOUT ANY WARRANTY; without even the implied warranty of
 * MERCHANTABILITY or FITNESS FOR A PARTICULAR PURPOSE.  See the
 * GNU Lesser General Public Licence for more details.
 *
 * You should have received a copy of the GNU Lesser General Public Licence
 * along with tdscpp.  If not, see <http://www.gnu.org/licenses/>. */

#include "tdscpp.h"

using namespace std;

static const uint32_t weights[] = {
    0x00000000, 0x06030202, 0x06040202, 0x06050202, 0x06060202, 0x06070202, 0x06080202, 0x06090202,
    0x060a0202, 0x07050202, 0x07060202, 0x07070202, 0x07080202, 0x07090202, 0x060b0202, 0x060c0202,
    0x060d0202, 0x060e0202, 0x060f0202, 0x06100202, 0x06110202, 0x06120202, 0x06130202, 0x06140202,
    0x06150202, 0x06160202, 0x06170202, 0x06180202, 0x06190202, 0x061a0202, 0x061b0202, 0x061c0202,
    0x07020202, 0x071c0202, 0x071d0202, 0x071f0202, 0x07210202, 0x07230202, 0x07250202, 0x06800202,
    0x07270202, 0x072a0202, 0x072d0202, 0x08030202, 0x072f0202, 0x06820202, 0x07330202, 0x07350202,
    0x0c030202, 0x0c210202, 0x0c330202, 0x0c460202, 0x0c580202, 0x0c6a0202, 0x0c7d0202, 0x0c900202,
    0x0ca20202, 0x0cb40202, 0x07370202, 0x073a0202, 0x080e0202, 0x08120202, 0x08140202, 0x073c0202,
    0x073e0202, 0x0e020212, 0x0e090212, 0x0e0a0212, 0x0e1a0212, 0x0e210212, 0x0e230212, 0x0e250212,
    0x0e2c0212, 0x0e320212, 0x0e350212, 0x0e360212, 0x0e480212, 0x0e510212, 0x0e700212, 0x0e7c0212,
    0x0e7e0212, 0x0e890212, 0x0e8a0212, 0x0e910212, 0x0e990212, 0x0e9f0212, 0x0ea20212, 0x0ea40212,
    0x0ea60212, 0x0ea70212, 0x0ea90212, 0x073f0202, 0x07410202, 0x07420202, 0x07430202, 0x07440202,
    0x07480202, 0x0e020202, 0x0e090202, 0x0e0a0202, 0x0e1a0202, 0x0e210202, 0x0e230202, 0x0e250202,
    0x0e2c0202, 0x0e320202, 0x0e350202, 0x0e360202, 0x0e480202, 0x0e510202, 0x0e700202, 0x0e7c0202,
    0x0e7e0202, 0x0e890202, 0x0e8a0202, 0x0e910202, 0x0e990202, 0x0e9f0202, 0x0ea20202, 0x0ea40202,
    0x0ea60202, 0x0ea70202, 0x0ea90202, 0x074a0202, 0x074c0202, 0x074e0202, 0x07500202, 0x061d0202,
    0x061e0202, 0x061f0202, 0x06200202, 0x06210202, 0x06220202, 0x06230202, 0x06240202, 0x06250202,
    0x06260202, 0x06270202, 0x06280202, 0x06290202, 0x062a0202, 0x062b0202, 0x062c0202, 0x062d0202,
    0x062e0202, 0x062f0202, 0x06300202, 0x06310202, 0x06320202, 0x06330202, 0x06340202, 0x06350202,
    0x06360202, 0x06370202, 0x06380202, 0x06390202, 0x063a0202, 0x063b0202, 0x063c0202, 0x063d0202,
    0x07040202, 0x07510202, 0x0a020202, 0x0a030202, 0x0a040202, 0x0a050202, 0x07520202, 0x0a060202,
    0x07530202, 0x0a070202, 0x0e02030e, 0x08180202, 0x0a080202, 0x06830202, 0x0a090202, 0x07540202,
    0x0a0a0202, 0x08170202, 0x0c33020e, 0x0c46020e, 0x07550202, 0x0a0b0202, 0x0a0c0202, 0x0a0d0202,
    0x07560202, 0x0c21020e, 0x0e7c030e, 0x081a0202, 0x0c150202, 0x0c190202, 0x0c1d0202, 0x07570202,
    0x0e020f12, 0x0e020e12, 0x0e021212, 0x0e021912, 0x0e021312, 0x0e021a12, 0x02000000, 0x0e0a1c12,
    0x0e210f12, 0x0e210e12, 0x0e211212, 0x0e211312, 0x0e320f12, 0x0e320e12, 0x0e321212, 0x0e321312,
    0x0e1a6812, 0x0e701912, 0x0e7c0f12, 0x0e7c0e12, 0x0e7c1212, 0x0e7c1912, 0x0e7c1312, 0x081c0202,
    0x0e7c2112, 0x0e9f0f12, 0x0e9f0e12, 0x0e9f1212, 0x0e9f1312, 0x0ea70e12, 0x02020000, 0x02030000,
    0x0e020f02, 0x0e020e02, 0x0e021202, 0x0e021902, 0x0e021302, 0x0e021a02, 0x02040000, 0x0e0a1c02,
    0x0e210f02, 0x0e210e02, 0x0e211202, 0x0e211302, 0x0e320f02, 0x0e320e02, 0x0e321202, 0x0e321302,
    0x0e1a6802, 0x0e701902, 0x0e7c0f02, 0x0e7c0e02, 0x0e7c1202, 0x0e7c1902, 0x0e7c1302, 0x081d0202,
    0x0e7c2102, 0x0e9f0f02, 0x0e9f0e02, 0x0e9f1202, 0x0e9f1302, 0x0ea70e02, 0x02060000, 0x0ea71302,
    0x0e021712, 0x0e021702, 0x0e021512, 0x0e021502, 0x0e021b12, 0x0e021b02, 0x0e0a0e12, 0x0e0a0e02,
    0x0e0a1212, 0x0e0a1202, 0x0e0a1012, 0x0e0a1002, 0x0e0a1412, 0x0e0a1402, 0x0e1a1412, 0x0e1a1402,
    0x0e1a1e12, 0x0e1a1e02, 0x0e211712, 0x0e211702, 0x0e211512, 0x0e211502, 0x0e211012, 0x0e211002,
    0x0e211b12, 0x0e211b02, 0x0e211412, 0x0e211402, 0x0e251212, 0x0e251202, 0x0e251512, 0x0e251502,
    0x0e251012, 0x0e251002, 0x0e251c12, 0x0e251c02, 0x0e2c1212, 0x0e2c1202, 0x0e2c1e12, 0x0e2c1e02,
    0x0e321912, 0x0e321902, 0x0e321712, 0x0e321702, 0x0e321512, 0x0e321502, 0x0e321b12, 0x0e321b02,
    0x0e321012, 0x0e320302, 0x02070000, 0x02080000, 0x0e351212, 0x0e351202, 0x0e361c12, 0x0e361c02,
    0x0e360302, 0x0e480e12, 0x0e480e02, 0x0e481c12, 0x0e481c02, 0x0e481412, 0x0e481402, 0x0e481112,
    0x0e481102, 0x0e481f12, 0x0e481f02, 0x0e700e12, 0x0e700e02, 0x0e701c12, 0x0e701c02, 0x0e701412,
    0x0e701402, 0x0e704802, 0x0e740212, 0x0e740202, 0x0e7c1712, 0x0e7c1702, 0x0e7c1512, 0x0e7c1502,
    0x0e7c1d12, 0x0e7c1d02, 0x02090000, 0x020a0000, 0x0e8a0e12, 0x0e8a0e02, 0x0e8a1c12, 0x0e8a1c02,
    0x0e8a1412, 0x0e8a1402, 0x0e910e12, 0x0e910e02, 0x0e911212, 0x0e911202, 0x0e911c12, 0x0e911c02,
    0x0e911412, 0x0e911402, 0x0e991c12, 0x0e991c02, 0x0e991412, 0x0e991402, 0x0e9e1e12, 0x0e9e1e02,
    0x0e9f1912, 0x0e9f1902, 0x0e9f1712, 0x0e9f1702, 0x0e9f1512, 0x0e9f1502, 0x0e9f1a12, 0x0e9f1a02,
    0x0e9f1d12, 0x0e9f1d02, 0x0e9f1b12, 0x0e9f1b02, 0x0ea41212, 0x0ea41202, 0x0ea71212, 0x0ea71202,
    0x0ea71312, 0x0ea90e12, 0x0ea90e02, 0x0ea91012, 0x0ea91002, 0x0ea91412, 0x0ea91402, 0x0e960202,
    0x0e091e02, 0x0e094312, 0x0e096812, 0x0e096802, 0x0e098712, 0x0e098702, 0x0e0a7d12, 0x0e0a4312,
    0x0e0a4302, 0x0e1b0412, 0x0e1a4312, 0x0e1a1e12, 0x0e1a1e02, 0x0e1a7c02, 0x0e217d12, 0x0e217e12,
    0x0e217b12, 0x0e234312, 0x0e237b02, 0x0e254312, 0x0e257b12, 0x0e2c7b02, 0x0e327b12, 0x0e321e12,
    0x0e364312, 0x0e364302, 0x0e481e02, 0x0e482002, 0x0e517b12, 0x0e704312, 0x0e707b02, 0x0e7c2012,
    0x0e7c5212, 0x0e7c5202, 0x0e7c7c12, 0x0e7c7c02, 0x0e7e4312, 0x0e7e4302, 0x0e8a7b12, 0x0e918712,
    0x0e918702, 0x0e917c12, 0x0e917f02, 0x0e995702, 0x0e994312, 0x0e994302, 0x0e995912, 0x0e9f5212,
    0x0e9f5202, 0x0e9f7b12, 0x0ea27b12, 0x0ea74312, 0x0ea74302, 0x0ea91e12, 0x0ea91e02, 0x0eaa0212,
    0x0eaa7c12, 0x0eaa7c02, 0x0eaa7d02, 0x0c330302, 0x0c6b0312, 0x0c6b0302, 0x0eb30202, 0x0ea47b02,
    0x081e0202, 0x081f0202, 0x08200202, 0x07580202, 0x020b0000, 0x020c0000, 0x020d0000, 0x020e0000,
    0x020f0000, 0x02100000, 0x02110000, 0x02120000, 0x02130000, 0x0e021412, 0x0e021402, 0x0e321412,
    0x0e321402, 0x0e7c1412, 0x0e7c1402, 0x0e9f1412, 0x0e9f1402, 0x0e9f2812, 0x0e9f2802, 0x0e9f1f12,
    0x0e9f1f02, 0x0e9f2512, 0x0e9f2502, 0x0e9f2012, 0x0e9f2002, 0x0e217d02, 0x0e022812, 0x0e022802,
    0x0e022512, 0x0e022502, 0x02140000, 0x02150000, 0x0e251e12, 0x0e251e02, 0x0e251412, 0x0e251402,
    0x0e361412, 0x0e361402, 0x0e7c1b12, 0x0e7c1b02, 0x0e7c3012, 0x0e7c3002, 0x0eaa1412, 0x0eaa1402,
    0x0e351402, 0x02160000, 0x02170000, 0x02180000, 0x0e250e12, 0x0e250e02, 0x00000000, 0x00000000,
    0x00000000, 0x00000000, 0x0e022612, 0x0e022602, 0x02190000, 0x021a0000, 0x0e7c2b12, 0x0e7c2b02,
    0x0e024412, 0x0e024402, 0x0e024612, 0x0e024602, 0x0e214412, 0x0e214402, 0x0e214612, 0x0e214602,
    0x0e324412, 0x0e324402, 0x0e324612, 0x0e324602, 0x0e7c4412, 0x0e7c4402, 0x0e7c4612, 0x0e7c4602,
    0x0e8a4412, 0x0e8a4402, 0x0e8a4612, 0x0e8a4602, 0x0e9f4412, 0x0e9f4402, 0x0e9f4612, 0x0e9f4602,
    0x00000000, 0x00000000, 0x00000000, 0x00000000, 0x00000000, 0x00000000, 0x00000000, 0x00000000,
    0x00000000, 0x00000000, 0x00000000, 0x00000000, 0x00000000, 0x00000000, 0x00000000, 0x00000000,
    0x00000000, 0x00000000, 0x00000000, 0x00000000, 0x00000000, 0x00000000, 0x00000000, 0x00000000,
    0x00000000, 0x00000000, 0x00000000, 0x00000000, 0x00000000, 0x00000000, 0x00000000, 0x00000000,
    0x00000000, 0x00000000, 0x00000000, 0x00000000, 0x00000000, 0x00000000, 0x00000000, 0x00000000,
    0x00000000, 0x00000000, 0x00000000, 0x00000000, 0x00000000, 0x00000000, 0x00000000, 0x00000000,
    0x00000000, 0x00000000, 0x00000000, 0x00000000, 0x00000000, 0x00000000, 0x00000000, 0x00000000,
    0x0e027b02, 0x0e027c02, 0x0e027d02, 0x0e094302, 0x0e0a7b02, 0x0e0a7c02, 0x0e1a5902, 0x0e1a4302,
    0x0e218002, 0x0e217e02, 0x0e217f02, 0x0e217b02, 0x0e218102, 0x0e218202, 0x0e218302, 0x0e351e02,
    0x0e254302, 0x0e257d02, 0x0e25020a, 0x0e257b02, 0x0e257c02, 0x0e2c7c02, 0x0e2c4302, 0x0e2d4302,
    0x0e321e02, 0x0e327b02, 0x0e32020a, 0x0e481902, 0x0e487b02, 0x0e485902, 0x0e487c02, 0x0e517b02,
    0x0e517c02, 0x0e514302, 0x0e704302, 0x0e705902, 0x0e70020a, 0x0e7c2002, 0x0e7c7b0a, 0x0e7c7e02,
    0x0e7e7b02, 0x0e8a7b02, 0x0e8a7c02, 0x0e8a7d02, 0x0e8a7e02, 0x0e8a4302, 0x0e8a7f02, 0x0e8a8002,
    0x0e8a020a, 0x0e8a7b0a, 0x0e914302, 0x0e217c02, 0x0e354302, 0x0e218402, 0x0e218502, 0x0e997b02,
    0x0e995902, 0x0e9f1e02, 0x0e9f7b02, 0x0ea27b02, 0x0ea27c02, 0x0ea47c02, 0x0ea77b02, 0x0ea7020a,
    0x0ea95902, 0x0ea97e02, 0x0eaa0202, 0x0eaa7e02, 0x0eb30302, 0x0eb30402, 0x0eb30502, 0x0e0a8802,
    0x0eb40202, 0x0e09020a, 0x0e218602, 0x0e25430a, 0x0e2c020a, 0x0e357b02, 0x0e367b02, 0x0e48020a,
    0x0e894302, 0x0eb30602, 0x0eb30b02, 0x0e1c7b02, 0x0e1a7b02, 0x0e1c7c02, 0x0e9d7b02, 0x0e997c02,
    0x0e997d02, 0x00000000, 0x00000000, 0x00000000, 0x00000000, 0x00000000, 0x00000000, 0x00000000,
    0x0e2c7e02, 0x0e2c7f02, 0x0e357e02, 0x0e8a8102, 0x0e8a8202, 0x0e8a8302, 0x0e8a840a, 0x0ea47e02,
    0x0ea77e02, 0x01000c00, 0x01001900, 0x01004500, 0x01004600, 0x01004700, 0x01007700, 0x01007800,
    0x01003f00, 0x01007900, 0x01007a00, 0x01007b00, 0x01007c00, 0x01007d00, 0x07430302, 0x07590202,
    0x01004000, 0x07540302, 0x07550302, 0x07480302, 0x01005a00, 0x01006200, 0x01007e00, 0x01007f00,
    0x07db0202, 0x01008100, 0x01008200, 0x01008300, 0x01005000, 0x01005100, 0x01005200, 0x01005300,
    0x07590302, 0x075a0202, 0x075b0202, 0x075c0202, 0x075d0202, 0x075e0202, 0x01008400, 0x00000000,
    0x0e257e02, 0x0e487e02, 0x0e917e02, 0x0ea67e02, 0x01008500, 0x01008600, 0x01008700, 0x01008800,
    0x01008900, 0x01008a00, 0x00000000, 0x00000000, 0x00000000, 0x00000000, 0x00000000, 0x00000000,
    0x00000000, 0x00000000, 0x00000000, 0x00000000, 0x00000000, 0x00000000, 0x00000000, 0x00000000,
    0x00000000, 0x00000000, 0x00000000, 0x00000000, 0x00000000, 0x00000000, 0x00000000, 0x00000000,
    0x01000d00, 0x01000c00, 0x01001000, 0x01001700, 0x01001500, 0x01003e00, 0x01001300, 0x01000e00,
    0x01001100, 0x01003f00, 0x01001800, 0x01001b00, 0x01001200, 0x01000300, 0x01004100, 0x01004200,
    0x01004300, 0x01004400, 0x01004500, 0x01004600, 0x01004700, 0x01004800, 0x01004900, 0x01004a00,
    0x01004b00, 0x01004c00, 0x01004d00, 0x01004e00, 0x01004f00, 0x01005000, 0x01005100, 0x01005200,
    0x01005300, 0x01005400, 0x01005500, 0x01005600, 0x01005700, 0x01005800, 0x01005900, 0x01001a00,
    0x01001900, 0x01005a00, 0x01005b00, 0x01005c00, 0x01005d00, 0x01005e00, 0x01005f00, 0x01006000,
    0x01006100, 0x01006200, 0x01006300, 0x01006400, 0x01006500, 0x01001c00, 0x01001c00, 0x01001d00,
    0x01001e00, 0x01006700, 0x01006800, 0x01006900, 0x01006a00, 0x01006b00, 0x01006c00, 0x01006d00,
    0x01006e00, 0x01006f00, 0x01008d00, 0x01008e00, 0x01001400, 0x01009000, 0x01007400, 0x01007500,
    0x01007600, 0x00000000, 0x00000000, 0x00000000, 0x00000000, 0x00000000, 0x00000000, 0x00000000,
    0x00000000, 0x00000000, 0x00000000, 0x00000000, 0x00000000, 0x00000000, 0x00000000, 0x00000000,
    0x00000000, 0x00000000, 0x00000000, 0x00000000, 0x00000000, 0x00000000, 0x00000000, 0x00000000,
    0x00000000, 0x00000000, 0x00000000, 0x00000000, 0x00000000, 0x00000000, 0x00000000, 0x00000000,
    0x00000000, 0x00000000, 0x00000000, 0x00000000, 0x00000000, 0x00000000, 0x00000000, 0x00000000,
    0x00000000, 0x00000000, 0x00000000, 0x00000000, 0x075f0202, 0x07600202, 0x00000000, 0x00000000,
    0x00000000, 0x00000000, 0x07610202, 0x00000000, 0x00000000, 0x00000000, 0x07620202, 0x00000000,
    0x00000000, 0x00000000, 0x00000000, 0x00000000, 0x07630202, 0x07640202, 0x0f020512, 0x00000000,
    0x0f060512, 0x0f080512, 0x0f0a0512, 0x00000000, 0x0f100512, 0x00000000, 0x0f150512, 0x0f190512,
    0x0f0a1602, 0x0f020212, 0x0f030212, 0x0f040212, 0x0f050212, 0x0f060212, 0x0f070212, 0x0f080212,
    0x0f090212, 0x0f0a0212, 0x0f0b0212, 0x0f0c0212, 0x0f0d0212, 0x0f0e0212, 0x0f0f0212, 0x0f100212,
    0x0f110212, 0x0f120212, 0x00000000, 0x0f130212, 0x0f140212, 0x0f150212, 0x0f160212, 0x0f170212,
    0x0f180212, 0x0f190212, 0x0f0a1312, 0x0f151312, 0x0f020502, 0x0f060502, 0x0f080502, 0x0f0a0502,
    0x0f151602, 0x0f020202, 0x0f030202, 0x0f040202, 0x0f050202, 0x0f060202, 0x0f070202, 0x0f080202,
    0x0f090202, 0x0f0a0202, 0x0f0b0202, 0x0f0c0202, 0x0f0d0202, 0x0f0e0202, 0x0f0f0202, 0x0f100202,
    0x0f110202, 0x0f120202, 0x0f13020a, 0x0f130202, 0x0f140202, 0x0f150202, 0x0f160202, 0x0f170202,
    0x0f180202, 0x0f190202, 0x0f0a1302, 0x0f151302, 0x0f100502, 0x0f150502, 0x0f190502, 0x00000000,
    0x0f030302, 0x0f090302, 0x0f151b12, 0x0f154412, 0x0f151312, 0x0f160302, 0x0f110302, 0x00000000,
    0x00000000, 0x00000000, 0x0f400212, 0x0f400202, 0x0f420212, 0x0f420202, 0x0f440212, 0x0f440202,
    0x0f460212, 0x0f460202, 0x0f480212, 0x0f480202, 0x0f4a0212, 0x0f4a0202, 0x0f4c0212, 0x0f4c0202,
    0x0f4e0212, 0x0f4e0202, 0x0f500212, 0x0f500202, 0x0f520212, 0x0f520202, 0x0f540212, 0x0f540202,
    0x0f0b0302, 0x0f120302, 0x0f130402, 0x00000000, 0x00000000, 0x00000000, 0x00000000, 0x00000000,
    0x00000000, 0x00000000, 0x00000000, 0x00000000, 0x00000000, 0x00000000, 0x00000000, 0x00000000,
    0x00000000, 0x10181312, 0x10150212, 0x100f0e12, 0x101b0212, 0x10240212, 0x102a0212, 0x102d0212,
    0x10330212, 0x103c0212, 0x10450212, 0x10570212, 0x10360e12, 0x00000000, 0x105d0212, 0x106f0212,
    0x10060212, 0x10090212, 0x100c0212, 0x100f0212, 0x10120212, 0x10180212, 0x101e0212, 0x10210212,
    0x10270212, 0x10300212, 0x10360212, 0x10390212, 0x103f0212, 0x10420212, 0x10480212, 0x104b0212,
    0x104e0212, 0x10510212, 0x10540212, 0x105a0212, 0x10630212, 0x10660212, 0x10690212, 0x106c0212,
    0x10720212, 0x10750212, 0x10780212, 0x107b0212, 0x107e0212, 0x10810212, 0x10840212, 0x10870212,
    0x10060202, 0x10090202, 0x100c0202, 0x100f0202, 0x10120202, 0x10180202, 0x101e0202, 0x10210202,
    0x10270202, 0x10300202, 0x10360202, 0x10390202, 0x103f0202, 0x10420202, 0x10480202, 0x104b0202,
    0x104e0202, 0x10510202, 0x10540202, 0x105a0202, 0x10630202, 0x10660202, 0x10690202, 0x106c0202,
    0x10720202, 0x10750202, 0x10780202, 0x107b0202, 0x107e0202, 0x10810202, 0x10840202, 0x10870202,
    0x00000000, 0x10181302, 0x10150202, 0x100f0e02, 0x101b0202, 0x10240202, 0x102a0202, 0x102d0202,
    0x10330202, 0x103c0202, 0x10450202, 0x10570202, 0x10360e02, 0x00000000, 0x105d0202, 0x106f0202,
    0x108d0212, 0x108d0202, 0x10900212, 0x10420302, 0x10930212, 0x10930202, 0x10960212, 0x10960202,
    0x10990212, 0x10990202, 0x109c0212, 0x109c0202, 0x109f0212, 0x109f0202, 0x10a20212, 0x10a20202,
    0x10a50212, 0x10a50202, 0x10a80212, 0x10a80202, 0x10ab0212, 0x10ab0202, 0x10ab4612, 0x10ab4602,
    0x10ae0212, 0x10ae0202, 0x10b10212, 0x10b10202, 0x10b40212, 0x10b40202, 0x10b70212, 0x10b70202,
    0x10ba0212, 0x10ba0202, 0x0cdb3702, 0x01009400, 0x01009500, 0x01009600, 0x01009700, 0x00000000,
    0x00000000, 0x00000000, 0x00000000, 0x00000000, 0x00000000, 0x00000000, 0x00000000, 0x00000000,
    0x100f0312, 0x100f0302, 0x100f1a12, 0x100f1a02, 0x100f0512, 0x100f0502, 0x101e0712, 0x101e0702,
    0x10211a12, 0x10211a02, 0x10361712, 0x10361702, 0x10360912, 0x10360902, 0x10360412, 0x10360402,
    0x10360a12, 0x10360a02, 0x10420712, 0x10420702, 0x10420812, 0x10420802, 0x104b0512, 0x104b0502,
    0x10480512, 0x10480502, 0x10511a12, 0x10511a02, 0x10540712, 0x10540702, 0x105a0b12, 0x105a0b02,
    0x10600212, 0x10600202, 0x10661712, 0x10661702, 0x10690312, 0x10690302, 0x106c0812, 0x106c0702,
    0x106c0912, 0x106c0902, 0x10420912, 0x10420902, 0x10180512, 0x10180502, 0x10181712, 0x10181702,
    0x102a0302, 0x101e1512, 0x101e1502, 0x10360512, 0x10360502, 0x00000000, 0x00000000, 0x10420a12,
    0x10420a02, 0x00000000, 0x00000000, 0x106c0d12, 0x106c0d02, 0x00000000, 0x00000000, 0x00000000,
    0x00000000, 0x00000000, 0x00000000, 0x00000000, 0x00000000, 0x00000000, 0x00000000, 0x00000000,
    0x10181e12, 0x10181e02, 0x00000000, 0x00000000, 0x00000000, 0x00000000, 0x00000000, 0x00000000,
    0x00000000, 0x00000000, 0x00000000, 0x00000000, 0x00000000, 0x00000000, 0x00000000, 0x00000000,
    0x10490212, 0x10490202, 0x00000000, 0x00000000, 0x00000000, 0x00000000, 0x00000000, 0x00000000,
    0x00000000, 0x00000000, 0x00000000, 0x00000000, 0x00000000, 0x00000000, 0x00000000, 0x00000000,
    0x00000000, 0x00000000, 0x00000000, 0x00000000, 0x00000000, 0x00000000, 0x00000000, 0x00000000,
    0x00000000, 0x00000000, 0x00000000, 0x00000000, 0x00000000, 0x00000000, 0x00000000, 0x00000000,
    0x00000000, 0x00000000, 0x00000000, 0x00000000, 0x00000000, 0x00000000, 0x00000000, 0x00000000,
    0x00000000, 0x00000000, 0x00000000, 0x00000000, 0x00000000, 0x00000000, 0x00000000, 0x00000000,
    0x00000000, 0x00000000, 0x00000000, 0x00000000, 0x00000000, 0x00000000, 0x00000000, 0x00000000,
    0x00000000, 0x00000000, 0x00000000, 0x00000000, 0x00000000, 0x00000000, 0x00000000, 0x00000000,
    0x00000000, 0x00000000, 0x00000000, 0x00000000, 0x00000000, 0x00000000, 0x00000000, 0x00000000,
    0x00000000, 0x11030212, 0x11040212, 0x11050212, 0x11060212, 0x11070212, 0x11080212, 0x11090212,
    0x110a0212, 0x110b0212, 0x110c0212, 0x110d0212, 0x110e0212, 0x110f0212, 0x11100212, 0x11110212,
    0x11120212, 0x11130212, 0x11140212, 0x11150212, 0x11160212, 0x11170212, 0x11180212, 0x11190212,
    0x111a0212, 0x111b0212, 0x111c0212, 0x111d0212, 0x111e0212, 0x111f0212, 0x11200212, 0x11210212,
    0x11220212, 0x11230212, 0x11240212, 0x11250212, 0x11260212, 0x11270212, 0x11280212, 0x00000000,
    0x00000000, 0x01009800, 0x01009900, 0x07650202, 0x07660202, 0x07670202, 0x07680202, 0x07690202,
    0x00000000, 0x11030202, 0x11040202, 0x11050202, 0x11060202, 0x11070202, 0x11080202, 0x11090202,
    0x110a0202, 0x110b0202, 0x110c0202, 0x110d0202, 0x110e0202, 0x110f0202, 0x11100202, 0x11110202,
    0x11120202, 0x11130202, 0x11140202, 0x11150202, 0x11160202, 0x11170202, 0x11180202, 0x11190202,
    0x111a0202, 0x111b0202, 0x111c0202, 0x111d0202, 0x111e0202, 0x111f0202, 0x11200202, 0x11210202,
    0x11220202, 0x11230202, 0x11240202, 0x11250202, 0x11260202, 0x11270202, 0x11280202, 0x00000000,
    0x00000000, 0x076a0202, 0x00000000, 0x00000000, 0x00000000, 0x00000000, 0x00000000, 0x00000000,
    0x00000000, 0x01000300, 0x01000400, 0x01000500, 0x01000600, 0x01000700, 0x01000800, 0x01000900,
    0x01000a00, 0x01000b00, 0x01000c00, 0x01000d00, 0x01000e00, 0x01000f00, 0x01001000, 0x01001100,
    0x01001200, 0x01001300, 0x00000000, 0x01001500, 0x01001600, 0x01001700, 0x01001800, 0x01001900,
    0x01001a00, 0x01001b00, 0x01001c00, 0x01001d00, 0x01001e00, 0x01001f00, 0x01002000, 0x01002100,
    0x01002200, 0x01002300, 0x01002400, 0x01002500, 0x01002600, 0x01002700, 0x01002800, 0x01002900,
    0x01002a00, 0x01002b00, 0x00000000, 0x01002d00, 0x01002e00, 0x01002f00, 0x076b0202, 0x01003000,
    0x01003100, 0x01003200, 0x01003300, 0x076d0202, 0x00000000, 0x00000000, 0x00000000, 0x00000000,
    0x00000000, 0x00000000, 0x00000000, 0x00000000, 0x00000000, 0x00000000, 0x00000000, 0x00000000,
    0x12020202, 0x12030202, 0x12040202, 0x12050202, 0x12060202, 0x12070202, 0x12080202, 0x12090202,
    0x120a0202, 0x120b0202, 0x120c0202, 0x120c0212, 0x120e0202, 0x120f0202, 0x120f0212, 0x12110202,
    0x12110212, 0x12130202, 0x12140202, 0x12150202, 0x12150212, 0x12170202, 0x12170212, 0x12190202,
    0x121a0202, 0x121b0202, 0x121c0202, 0x00000000, 0x00000000, 0x00000000, 0x00000000, 0x00000000,
    0x02220000, 0x02230000, 0x02240000, 0x076e0202, 0x076f0202, 0x00000000, 0x00000000, 0x00000000,
    0x00000000, 0x00000000, 0x00000000, 0x00000000, 0x00000000, 0x00000000, 0x00000000, 0x00000000,
    0x00000000, 0x00000000, 0x00000000, 0x00000000, 0x00000000, 0x00000000, 0x00000000, 0x00000000,
    0x00000000, 0x00000000, 0x00000000, 0x00000000, 0x07700202, 0x00000000, 0x00000000, 0x00000000,
    0x00000000, 0x00000000, 0x00000000, 0x00000000, 0x00000000, 0x00000000, 0x00000000, 0x00000000,
    0x00000000, 0x00000000, 0x00000000, 0x07710202, 0x00000000, 0x00000000, 0x00000000, 0x07720202,
    0x00000000, 0x13070202, 0x130b0902, 0x130b0a02, 0x13070502, 0x130b0b02, 0x13070702, 0x130b0802,
    0x130f0802, 0x13130802, 0x13130802, 0x13170802, 0x131b0802, 0x131f0802, 0x13230802, 0x13270802,
    0x132b0802, 0x132f0802, 0x13330802, 0x13370802, 0x133b0802, 0x133f0802, 0x13430802, 0x13470802,
    0x134b0802, 0x134f0802, 0x13530802, 0x00000000, 0x00000000, 0x00000000, 0x00000000, 0x00000000,
    0x00000000, 0x13570802, 0x135b0802, 0x135f0802, 0x13630802, 0x13670802, 0x136b0802, 0x136f0802,
    0x13730802, 0x13770502, 0x13770702, 0x06a00202, 0x06a10202, 0x06a20202, 0x06a30202, 0x06a40202,
    0x06a50202, 0x06a70202, 0x06a60202, 0x00000000, 0x00000000, 0x00000000, 0x00000000, 0x00000000,
    0x00000000, 0x00000000, 0x00000000, 0x00000000, 0x00000000, 0x00000000, 0x00000000, 0x00000000,
    0x0c043802, 0x0c223802, 0x0c353802, 0x0c473802, 0x0c593802, 0x0c6c3802, 0x0c7f3802, 0x0c913802,
    0x0ca33802, 0x0cb53802, 0x07730202, 0x07740202, 0x07750202, 0x00000000, 0x00000000, 0x00000000,
    0x130b0c02, 0x130b0d02, 0x130b0e02, 0x130b0f02, 0x13840202, 0x130b1002, 0x13860202, 0x13870202,
    0x13880202, 0x13890202, 0x138a0202, 0x138b0202, 0x138c0202, 0x138d0202, 0x13110802, 0x138f0202,
    0x13900202, 0x13910202, 0x13920202, 0x13930202, 0x13940202, 0x13950202, 0x131d0802, 0x13970202,
    0x13980202, 0x13990202, 0x139a0202, 0x139b0202, 0x139c0202, 0x139d0202, 0x139e0202, 0x139f0202,
    0x13a00202, 0x13a10202, 0x13a20202, 0x13a30202, 0x13a40202, 0x13a50202, 0x13a60202, 0x13a70202,
    0x13350802, 0x13a90202, 0x13aa0202, 0x13ab0202, 0x13ac0202, 0x13ad0202, 0x13ae0202, 0x13af0202,
    0x13b00202, 0x13b10202, 0x13b20202, 0x13b30202, 0x13b40202, 0x13b50202, 0x13b60202, 0x13b70202,
    0x13b80202, 0x135f0822, 0x135f082a, 0x13bb0202, 0x13bc0202, 0x13bd0202, 0x13be0202, 0x13610802,
    0x13c00202, 0x13c10202, 0x13c20202, 0x13c30202, 0x13c40202, 0x13c50202, 0x13c60202, 0x13c70202,
    0x13c80202, 0x13c90202, 0x13ca0202, 0x13cb0202, 0x13cc0202, 0x13cd0202, 0x13ce0202, 0x13cf0202,
    0x13d00202, 0x13d10202, 0x13d20202, 0x13d30202, 0x13d40202, 0x13d50202, 0x13d60202, 0x13d70202,
    0x13d80202, 0x13d90202, 0x13da0202, 0x13db0202, 0x13dc0202, 0x13dd0202, 0x13de0202, 0x13df0202,
    0x13e00202, 0x13e10202, 0x13e20202, 0x13e30202, 0x07760202, 0x13e40202, 0x00000000, 0x00000000,
    0x00000000, 0x00000000, 0x00000000, 0x00000000, 0x00000000, 0x00000000, 0x00000000, 0x00000000,
    0x00000000, 0x00000000, 0x00000000, 0x00000000, 0x00000000, 0x00000000, 0x00000000, 0x00000000,
    0x00000000, 0x00000000, 0x00000000, 0x00000000, 0x00000000, 0x00000000, 0x00000000, 0x00000000,
    0x0c053902, 0x0c233902, 0x0c363902, 0x0c483902, 0x0c5a3902, 0x0c6d3902, 0x0c803902, 0x0c923902,
    0x0ca43902, 0x0cb63902, 0x00000000, 0x00000000, 0x00000000, 0x00000000, 0x00000000, 0x00000000,
    0x07e20202, 0x07e30202, 0x07e40202, 0x07e50202, 0x07e60202, 0x07e70202, 0x07e80202, 0x07e90202,
    0x07ea0202, 0x07eb0202, 0x07ec0202, 0x07ed0202, 0x07ee0202, 0x07ef0202, 0x00000000, 0x07f00202,
    0x240b0202, 0x01009a02, 0x240f0202, 0x24130202, 0x24150202, 0x24170202, 0x24190202, 0x241b0202,
    0x241f0202, 0x24230202, 0x24270202, 0x242b0202, 0x242d0202, 0x242f0202, 0x24310202, 0x24330202,
    0x24370202, 0x243b0202, 0x24400202, 0x24440202, 0x24460202, 0x24480202, 0x244c0202, 0x244e0202,
    0x24500202, 0x24540202, 0x24580202, 0x245c0202, 0x24600202, 0x00000000, 0x00000000, 0x00000000,
    0x01009f02, 0x0100a002, 0x01009402, 0x0100a102, 0x0100a202, 0x01009502, 0x0100a302, 0x0100a402,
    0x01009602, 0x01009702, 0x0100a502, 0x0100a602, 0x01009802, 0x0100a702, 0x0100a802, 0x01009902,
    0x01008d02, 0x01008e02, 0x01008f02, 0x01009b02, 0x01009c02, 0x01009d02, 0x01009e02, 0x01009002,
    0x01009102, 0x0100a902, 0x0100aa02, 0x00000000, 0x00000000, 0x00000000, 0x00000000, 0x00000000,
    0x00000000, 0x00000000, 0x00000000, 0x00000000, 0x00000000, 0x00000000, 0x00000000, 0x00000000,
    0x00000000, 0x00000000, 0x00000000, 0x00000000, 0x00000000, 0x00000000, 0x00000000, 0x00000000,
    0x00000000, 0x00000000, 0x00000000, 0x00000000, 0x00000000, 0x00000000, 0x00000000, 0x00000000,
    0x00000000, 0x00000000, 0x00000000, 0x00000000, 0x00000000, 0x00000000, 0x00000000, 0x00000000,
    0x00000000, 0x00000000, 0x00000000, 0x00000000, 0x00000000, 0x00000000, 0x00000000, 0x00000000,
    0x00000000, 0x00000000, 0x00000000, 0x00000000, 0x00000000, 0x00000000, 0x00000000, 0x00000000,
    0x246e0202, 0x24740202, 0x24760202, 0x247a0202, 0x247e0202, 0x24800202, 0x24820202, 0x24840202,
    0x248a0202, 0x248e0202, 0x24900202, 0x24920202, 0x24960202, 0x249e0202, 0x24a00202, 0x24a40202,
    0x24a60202, 0x24ae0202, 0x24b00202, 0x24b20202, 0x24b40202, 0x24b60202, 0x24b80202, 0x24ba0202,
    0x24980202, 0x24700202, 0x24720202, 0x24940202, 0x247c0202, 0x24a80202, 0x24aa0202, 0x24ac0202,
    0x249a0202, 0x249c0202, 0x24860202, 0x24880202, 0x24a20202, 0x248c0202, 0x0100ac02, 0x0100ad02,
    0x0100ae02, 0x0100af02, 0x0100b002, 0x0100b102, 0x0100b202, 0x0100b302, 0x0100b402, 0x0100b502,
    0x0100b602, 0x00000000, 0x00000000, 0x00000000, 0x00000000, 0x00000000, 0x00000000, 0x00000000,
    0x00000000, 0x00000000, 0x00000000, 0x00000000, 0x00000000, 0x00000000, 0x00000000, 0x00000000,
    0x00000000, 0x00000000, 0x00000000, 0x00000000, 0x00000000, 0x00000000, 0x00000000, 0x00000000,
    0x00000000, 0x00000000, 0x00000000, 0x00000000, 0x00000000, 0x00000000, 0x00000000, 0x00000000,
    0x00000000, 0x00000000, 0x00000000, 0x00000000, 0x00000000, 0x00000000, 0x00000000, 0x00000000,
    0x00000000, 0x00000000, 0x00000000, 0x00000000, 0x00000000, 0x00000000, 0x00000000, 0x00000000,
    0x00000000, 0x00000000, 0x00000000, 0x00000000, 0x00000000, 0x00000000, 0x00000000, 0x00000000,
    0x00000000, 0x00000000, 0x00000000, 0x00000000, 0x00000000, 0x00000000, 0x00000000, 0x00000000,
    0x00000000, 0x00000000, 0x00000000, 0x00000000, 0x00000000, 0x00000000, 0x00000000, 0x00000000,
    0x00000000, 0x00000000, 0x00000000, 0x00000000, 0x00000000, 0x00000000, 0x00000000, 0x00000000,
    0x00000000, 0x00000000, 0x00000000, 0x00000000, 0x00000000, 0x00000000, 0x00000000, 0x00000000,
    0x00000000, 0x00000000, 0x00000000, 0x00000000, 0x00000000, 0x00000000, 0x00000000, 0x00000000,
    0x00000000, 0x00000000, 0x00000000, 0x00000000, 0x00000000, 0x00000000, 0x00000000, 0x00000000,
    0x00000000, 0x00000000, 0x00000000, 0x00000000, 0x00000000, 0x00000000, 0x00000000, 0x00000000,
    0x00000000, 0x00000000, 0x00000000, 0x00000000, 0x00000000, 0x00000000, 0x00000000, 0x00000000,
    0x00000000, 0x00000000, 0x00000000, 0x00000000, 0x00000000, 0x00000000, 0x00000000, 0x00000000,
    0x00000000, 0x00000000, 0x00000000, 0x00000000, 0x00000000, 0x00000000, 0x00000000, 0x00000000,
    0x00000000, 0x00000000, 0x00000000, 0x00000000, 0x00000000, 0x00000000, 0x00000000, 0x00000000,
    0x00000000, 0x00000000, 0x00000000, 0x00000000, 0x00000000, 0x00000000, 0x00000000, 0x00000000,
    0x00000000, 0x00000000, 0x00000000, 0x00000000, 0x00000000, 0x00000000, 0x00000000, 0x00000000,
    0x00000000, 0x00000000, 0x00000000, 0x00000000, 0x00000000, 0x00000000, 0x00000000, 0x00000000,
    0x00000000, 0x00000000, 0x00000000, 0x00000000, 0x00000000, 0x00000000, 0x00000000, 0x00000000,
    0x00000000, 0x00000000, 0x00000000, 0x00000000, 0x00000000, 0x00000000, 0x00000000, 0x00000000,
    0x00000000, 0x00000000, 0x00000000, 0x00000000, 0x00000000, 0x00000000, 0x00000000, 0x00000000,
    0x00000000, 0x00000000, 0x00000000, 0x00000000, 0x00000000, 0x00000000, 0x00000000, 0x00000000,
    0x00000000, 0x00000000, 0x00000000, 0x00000000, 0x00000000, 0x00000000, 0x00000000, 0x00000000,
    0x00000000, 0x00000000, 0x00000000, 0x00000000, 0x00000000, 0x00000000, 0x00000000, 0x00000000,
    0x00000000, 0x00000000, 0x00000000, 0x00000000, 0x00000000, 0x00000000, 0x00000000, 0x00000000,
    0x00000000, 0x00000000, 0x00000000, 0x00000000, 0x00000000, 0x00000000, 0x00000000, 0x00000000,
    0x00000000, 0x00000000, 0x00000000, 0x00000000, 0x00000000, 0x00000000, 0x00000000, 0x00000000,
    0x00000000, 0x00000000, 0x00000000, 0x00000000, 0x00000000, 0x00000000, 0x00000000, 0x00000000,
    0x00000000, 0x00000000, 0x00000000, 0x00000000, 0x00000000, 0x00000000, 0x00000000, 0x00000000,
    0x00000000, 0x00000000, 0x00000000, 0x00000000, 0x00000000, 0x00000000, 0x00000000, 0x00000000,
    0x00000000, 0x00000000, 0x00000000, 0x00000000, 0x00000000, 0x00000000, 0x00000000, 0x00000000,
    0x00000000, 0x00000000, 0x00000000, 0x00000000, 0x00000000, 0x00000000, 0x00000000, 0x00000000,
    0x00000000, 0x00000000, 0x00000000, 0x00000000, 0x00000000, 0x00000000, 0x00000000, 0x00000000,
    0x00000000, 0x00000000, 0x00000000, 0x00000000, 0x00000000, 0x00000000, 0x00000000, 0x00000000,
    0x00000000, 0x00000000, 0x00000000, 0x00000000, 0x00000000, 0x00000000, 0x00000000, 0x00000000,
    0x00000000, 0x00000000, 0x00000000, 0x00000000, 0x00000000, 0x00000000, 0x00000000, 0x00000000,
    0x00000000, 0x00000000, 0x00000000, 0x00000000, 0x00000000, 0x00000000, 0x00000000, 0x00000000,
    0x00000000, 0x00000000, 0x00000000, 0x00000000, 0x00000000, 0x00000000, 0x00000000, 0x00000000,
    0x00000000, 0x00000000, 0x00000000, 0x00000000, 0x00000000, 0x00000000, 0x00000000, 0x00000000,
    0x00000000, 0x14040202, 0x14060202, 0x14080202, 0x00000000, 0x140b0282, 0x140f0282, 0x14130282,
    0x14170282, 0x141b0282, 0x141f0282, 0x14230282, 0x142b0282, 0x14330282, 0x14370282, 0x143b0282,
    0x143f0282, 0x14430282, 0x14470282, 0x144b0282, 0x144f0282, 0x14530282, 0x14570282, 0x145b0282,
    0x145f0282, 0x14630282, 0x14670282, 0x146b0282, 0x146f0282, 0x14730282, 0x14770282, 0x147b0282,
    0x147f0282, 0x14830282, 0x14870282, 0x148b0282, 0x148f0282, 0x14930282, 0x14970282, 0x149b0282,
    0x149f0282, 0x149f0802, 0x14a30282, 0x14a70282, 0x14ab0282, 0x14af0282, 0x14b30282, 0x14b70282,
    0x14bb0282, 0x14bb0802, 0x14bf0282, 0x14c30282, 0x14c30802, 0x14c70282, 0x14cb0282, 0x14cf0282,
    0x14d30282, 0x14d70282, 0x00000000, 0x00000000, 0x01000600, 0x07de0202, 0x14da0282, 0x14dc0282,
    0x14de0282, 0x14e00282, 0x14e20282, 0x14e40282, 0x14e60282, 0x14ec0282, 0x14ee0282, 0x14f00282,
    0x14f20282, 0x14f40282, 0x14f60282, 0x14f80282, 0x14fa0282, 0x14fc0202, 0x00000000, 0x00000000,
    0x07dd0202, 0x01000a00, 0x01000c00, 0x01000e00, 0x01001000, 0x00000000, 0x00000000, 0x00000000,
    0x14530802, 0x14570802, 0x145b0802, 0x146f0802, 0x14830802, 0x14870802, 0x14a70802, 0x14b70802,
    0x14270282, 0x142f0282, 0x14e80282, 0x14ea0282, 0x07df0202, 0x07e00202, 0x0c063a02, 0x0c243a02,
    0x0c373a02, 0x0c493a02, 0x0c5b3a02, 0x0c6e3a02, 0x0c813a02, 0x0c933a02, 0x0ca53a02, 0x0cb73a02,
    0x07e10202, 0x00000000, 0x00000000, 0x00000000, 0x00000000, 0x00000000, 0x00000000, 0x00000000,
    0x00000000, 0x00000000, 0x00000000, 0x00000000, 0x00000000, 0x00000000, 0x00000000, 0x00000000,
    0x00000000, 0x01000300, 0x15020202, 0x15030202, 0x00000000, 0x15040202, 0x15050202, 0x15060202,
    0x15070202, 0x15080202, 0x15090202, 0x150a0202, 0x150b0202, 0x00000000, 0x00000000, 0x150c0202,
    0x150d0202, 0x00000000, 0x00000000, 0x150e0202, 0x150f0202, 0x15100202, 0x15110202, 0x15120202,
    0x15130202, 0x15140202, 0x15150202, 0x15160202, 0x15170202, 0x15180202, 0x15190202, 0x151a0202,
    0x151b0202, 0x151c0202, 0x151d0202, 0x151e0202, 0x151f0202, 0x15200202, 0x15210202, 0x15220202,
    0x15230202, 0x00000000, 0x15240202, 0x15250202, 0x15260202, 0x15270202, 0x15280202, 0x15290202,
    0x152a0202, 0x00000000, 0x152b0202, 0x00000000, 0x00000000, 0x00000000, 0x152c0202, 0x152d0202,
    0x152e0202, 0x152f0202, 0x00000000, 0x00000000, 0x01000400, 0x00000000, 0x15300202, 0x15310202,
    0x15320202, 0x01000500, 0x01000600, 0x01000700, 0x01000800, 0x00000000, 0x00000000, 0x15330202,
    0x15340202, 0x00000000, 0x00000000, 0x15350202, 0x15360202, 0x01000900, 0x00000000, 0x00000000,
    0x00000000, 0x00000000, 0x00000000, 0x00000000, 0x00000000, 0x00000000, 0x00000000, 0x15370202,
    0x00000000, 0x00000000, 0x00000000, 0x00000000, 0x151c0602, 0x151d0602, 0x00000000, 0x15290602,
    0x153b0202, 0x153c0202, 0x01000a00, 0x01000b00, 0x00000000, 0x00000000, 0x0c073b02, 0x0c253b02,
    0x0c383b02, 0x0c4a3b02, 0x0c5c3b02, 0x0c6f3b02, 0x0c823b02, 0x0c943b02, 0x0ca63b02, 0x0cb83b02,
    0x153d0202, 0x153e0202, 0x153f0202, 0x15400202, 0x0c253c02, 0x0c383c02, 0x0c4a3c02, 0x0c5c3c02,
    0x0c023c02, 0x0cd23c02, 0x15410202, 0x00000000, 0x00000000, 0x00000000, 0x00000000, 0x00000000,
    0x00000000, 0x00000000, 0x01000a00, 0x00000000, 0x00000000, 0x16180202, 0x161c0202, 0x162c0202,
    0x16300202, 0x160c0202, 0x16100202, 0x00000000, 0x00000000, 0x00000000, 0x00000000, 0x16340202,
    0x16200202, 0x00000000, 0x00000000, 0x16140202, 0x16240202, 0x16400202, 0x16440202, 0x16480202,
    0x164c0202, 0x16500202, 0x16540202, 0x16580202, 0x165c0202, 0x16600202, 0x16640202, 0x16680202,
    0x166c0202, 0x16700202, 0x16740202, 0x16780202, 0x167c0202, 0x16800202, 0x16840202, 0x16880202,
    0x168c0202, 0x00000000, 0x16900202, 0x16940202, 0x16980202, 0x169c0202, 0x16a00202, 0x16a40202,
    0x16a80202, 0x00000000, 0x16ac0202, 0x16ac0412, 0x00000000, 0x16b00202, 0x16380412, 0x00000000,
    0x16380202, 0x163c0202, 0x00000000, 0x00000000, 0x01000400, 0x00000000, 0x16c00202, 0x16c40202,
    0x16c80202, 0x16cc0202, 0x16d00202, 0x00000000, 0x00000000, 0x00000000, 0x00000000, 0x16d40202,
    0x16d80202, 0x00000000, 0x00000000, 0x16dc0202, 0x16e00202, 0x01000300, 0x00000000, 0x00000000,
    0x00000000, 0x00000000, 0x00000000, 0x00000000, 0x00000000, 0x00000000, 0x00000000, 0x00000000,
    0x00000000, 0x16440412, 0x16480412, 0x165c0412, 0x16b40202, 0x00000000, 0x16940412, 0x00000000,
    0x00000000, 0x00000000, 0x00000000, 0x00000000, 0x00000000, 0x00000000, 0x0c083d02, 0x0c263d02,
    0x0c393d02, 0x0c4b3d02, 0x0c5d3d02, 0x0c703d02, 0x0c833d02, 0x0c953d02, 0x0ca73d02, 0x0cb93d02,
    0x01000e00, 0x01000600, 0x16280202, 0x16080202, 0x16040202, 0x00000000, 0x00000000, 0x00000000,
    0x00000000, 0x00000000, 0x00000000, 0x00000000, 0x00000000, 0x00000000, 0x00000000, 0x00000000,
    0x00000000, 0x17c20202, 0x17c40202, 0x17c80202, 0x00000000, 0x17080202, 0x170c0202, 0x17100202,
    0x17140202, 0x17180202, 0x171c0202, 0x17200202, 0x00000000, 0x17240202, 0x00000000, 0x17280202,
    0x172c0202, 0x17300202, 0x00000000, 0x17340202, 0x17380202, 0x173c0202, 0x17400202, 0x17440202,
    0x17480202, 0x174c0202, 0x17500202, 0x17540202, 0x17580202, 0x175c0202, 0x17600202, 0x17640202,
    0x17680202, 0x176c0202, 0x17700202, 0x17740202, 0x17780202, 0x177c0202, 0x17800202, 0x17840202,
    0x17880202, 0x00000000, 0x178c0202, 0x17900202, 0x17940202, 0x17980202, 0x179c0202, 0x17a00202,
    0x17a40202, 0x00000000, 0x17a80202, 0x17c00202, 0x00000000, 0x17ac0202, 0x17b00202, 0x17b40202,
    0x17b80202, 0x17bc0202, 0x00000000, 0x00000000, 0x01000b00, 0x01000300, 0x17cc0202, 0x17cf0202,
    0x17d20202, 0x17d50202, 0x17d90202, 0x17dc0202, 0x17dc0502, 0x17e20202, 0x00000000, 0x17e50202,
    0x17e80202, 0x17eb0202, 0x00000000, 0x17ee0202, 0x17f10202, 0x17f40202, 0x00000000, 0x00000000,
    0x17040202, 0x00000000, 0x00000000, 0x00000000, 0x00000000, 0x00000000, 0x00000000, 0x00000000,
    0x00000000, 0x00000000, 0x00000000, 0x00000000, 0x00000000, 0x00000000, 0x00000000, 0x00000000,
    0x17200502, 0x00000000, 0x00000000, 0x00000000, 0x00000000, 0x00000000, 0x0c093e02, 0x0c273e02,
    0x0c3a3e02, 0x0c4c3e02, 0x0c5e3e02, 0x0c713e02, 0x0c843e02, 0x0c963e02, 0x0ca83e02, 0x0cba3e02,
    0x00000000, 0x00000000, 0x00000000, 0x00000000, 0x00000000, 0x00000000, 0x00000000, 0x00000000,
    0x00000000, 0x00000000, 0x00000000, 0x00000000, 0x00000000, 0x00000000, 0x00000000, 0x00000000,
    0x00000000, 0x01000300, 0x18020202, 0x18030202, 0x00000000, 0x18040202, 0x18050202, 0x18060202,
    0x18070202, 0x18080202, 0x18090202, 0x180a0202, 0x180b0202, 0x00000000, 0x00000000, 0x180c0202,
    0x180d0202, 0x00000000, 0x00000000, 0x180e0202, 0x180f0202, 0x18100202, 0x18110202, 0x18120202,
    0x18130202, 0x18140202, 0x18150202, 0x18160202, 0x18170202, 0x18180202, 0x18190202, 0x181a0202,
    0x181b0202, 0x181c0202, 0x181d0202, 0x181e0202, 0x181f0202, 0x18200202, 0x18210202, 0x18220202,
    0x18230202, 0x00000000, 0x18240202, 0x18250202, 0x18260202, 0x18270202, 0x18280202, 0x18290202,
    0x182a0202, 0x00000000, 0x182b0202, 0x182c0202, 0x00000000, 0x00000000, 0x182d0202, 0x182e0202,
    0x182f0202, 0x18300202, 0x00000000, 0x00000000, 0x01000400, 0x18310202, 0x18320202, 0x01000500,
    0x18330202, 0x01000600, 0x01000700, 0x01000800, 0x00000000, 0x00000000, 0x00000000, 0x18340202,
    0x18350202, 0x00000000, 0x00000000, 0x18360202, 0x18370202, 0x01000900, 0x00000000, 0x00000000,
    0x00000000, 0x00000000, 0x00000000, 0x00000000, 0x00000000, 0x00000000, 0x00000000, 0x18380202,
    0x00000000, 0x00000000, 0x00000000, 0x00000000, 0x181c0602, 0x181d0602, 0x00000000, 0x18290602,
    0x183c0202, 0x183d0202, 0x00000000, 0x00000000, 0x00000000, 0x00000000, 0x0c0a3f02, 0x0c283f02,
    0x0c3b3f02, 0x0c4d3f02, 0x0c5f3f02, 0x0c723f02, 0x0c853f02, 0x0c973f02, 0x0ca93f02, 0x0cbb3f02,
    0x183e0202, 0x00000000, 0x00000000, 0x00000000, 0x00000000, 0x00000000, 0x00000000, 0x00000000,
    0x00000000, 0x00000000, 0x00000000, 0x00000000, 0x00000000, 0x00000000, 0x00000000, 0x00000000,
    0x00000000, 0x00000000, 0x190a0202, 0x190c0202, 0x00000000, 0x190e0202, 0x19100202, 0x19120202,
    0x19140202, 0x19160202, 0x19180202, 0x00000000, 0x00000000, 0x00000000, 0x191a0202, 0x191c0202,
    0x191e0202, 0x00000000, 0x19200202, 0x19220202, 0x19240202, 0x192802c2, 0x00000000, 0x00000000,
    0x00000000, 0x192c0282, 0x19300282, 0x00000000, 0x19700282, 0x00000000, 0x19340282, 0x19380282,
    0x00000000, 0x00000000, 0x00000000, 0x193c0282, 0x19400282, 0x00000000, 0x00000000, 0x00000000,
    0x19440282, 0x196c0282, 0x19480282, 0x00000000, 0x00000000, 0x00000000, 0x194c0282, 0x19500282,
    0x19540282, 0x19680282, 0x19580282, 0x19640282, 0x19600282, 0x195c0282, 0x00000000, 0x197802c2,
    0x19740282, 0x197e0282, 0x00000000, 0x00000000, 0x00000000, 0x00000000, 0x19820202, 0x19840202,
    0x19860202, 0x19880202, 0x198a0202, 0x00000000, 0x00000000, 0x00000000, 0x198c0202, 0x198e0202,
    0x19900202, 0x00000000, 0x19920202, 0x19940202, 0x19960202, 0x01000200, 0x00000000, 0x00000000,
    0x00000000, 0x00000000, 0x00000000, 0x00000000, 0x00000000, 0x00000000, 0x00000000, 0x19020202,
    0x00000000, 0x00000000, 0x00000000, 0x00000000, 0x00000000, 0x00000000, 0x00000000, 0x00000000,
    0x00000000, 0x00000000, 0x00000000, 0x00000000, 0x00000000, 0x00000000, 0x00000000, 0x0c294002,
    0x0c3c4002, 0x0c4e4002, 0x0c604002, 0x0c734002, 0x0c864002, 0x0c984002, 0x0caa4002, 0x0cbc4002,
    0x0cc74002, 0x0cd84002, 0x0cdc4002, 0x00000000, 0x00000000, 0x00000000, 0x00000000, 0x00000000,
    0x00000000, 0x00000000, 0x00000000, 0x00000000, 0x00000000, 0x00000000, 0x00000000, 0x00000000,
    0x00000000, 0x1a040202, 0x1a070202, 0x1a0a0202, 0x00000000, 0x1a0d0202, 0x1a100202, 0x1a130202,
    0x1a160202, 0x1a190202, 0x1a1c0202, 0x1a1f0202, 0x1a250202, 0x00000000, 0x1a2b0202, 0x1a2e0202,
    0x1a310202, 0x00000000, 0x1a340202, 0x1a370202, 0x1a3a0202, 0x1a3d0202, 0x1a400202, 0x1a430202,
    0x1a460202, 0x1a490202, 0x1a4c0202, 0x1a4f0202, 0x1a520202, 0x1a550202, 0x1a580202, 0x1a5b0202,
    0x1a5e0202, 0x1a610202, 0x1a640202, 0x1a670202, 0x1a6a0202, 0x1a6d0202, 0x1a700202, 0x1a730202,
    0x1a760202, 0x00000000, 0x1a790202, 0x1a7c0202, 0x1a7f0202, 0x1a820202, 0x1a850202, 0x1a880202,
    0x1a8b0202, 0x1a8e0202, 0x1a910202, 0x1a940202, 0x00000000, 0x1a970202, 0x1a9a0202, 0x1a9d0202,
    0x1aa00202, 0x1aa30202, 0x00000000, 0x00000000, 0x00000000, 0x00000000, 0x1aa60202, 0x1aa90202,
    0x1aac0202, 0x1aaf0202, 0x1ab20202, 0x1ab50202, 0x1ab80202, 0x00000000, 0x1abb0202, 0x1abe0202,
    0x1ac10202, 0x00000000, 0x1ac40202, 0x1ac70202, 0x1aca0202, 0x1acd0202, 0x00000000, 0x00000000,
    0x00000000, 0x00000000, 0x00000000, 0x00000000, 0x00000000, 0x01000d00, 0x01000e00, 0x00000000,
    0x00000000, 0x00000000, 0x00000000, 0x00000000, 0x00000000, 0x00000000, 0x00000000, 0x00000000,
    0x1a220202, 0x1a280202, 0x00000000, 0x00000000, 0x00000000, 0x00000000, 0x0c0b4102, 0x0c2a4102,
    0x0c3d4102, 0x0c4f4102, 0x0c614102, 0x0c744102, 0x0c874102, 0x0c994102, 0x0cab4102, 0x0cbd4102,
    0x00000000, 0x00000000, 0x00000000, 0x00000000, 0x00000000, 0x00000000, 0x00000000, 0x00000000,
    0x00000000, 0x00000000, 0x00000000, 0x00000000, 0x00000000, 0x00000000, 0x00000000, 0x00000000,
    0x00000000, 0x00000000, 0x1b040202, 0x1b070202, 0x00000000, 0x1b0a0202, 0x1b0d0202, 0x1b100202,
    0x1b130202, 0x1b160202, 0x1b190202, 0x1b1c0202, 0x1b1f0202, 0x00000000, 0x1b220202, 0x1b250202,
    0x1b280202, 0x00000000, 0x1b2b0202, 0x1b2e0202, 0x1b310202, 0x1b340202, 0x1b370202, 0x1b3a0202,
    0x1b3d0202, 0x1b400202, 0x1b430202, 0x1b460202, 0x1b490202, 0x1b4c0202, 0x1b4f0202, 0x1b520202,
    0x1b550202, 0x1b580202, 0x1b5b0202, 0x1b5e0202, 0x1b610202, 0x1b640202, 0x1b670202, 0x1b6a0202,
    0x1b6d0202, 0x00000000, 0x1b700202, 0x1b730202, 0x1b760202, 0x1b790202, 0x1b7c0202, 0x1b7f0202,
    0x1b820202, 0x1b9a0202, 0x1b850202, 0x1b9d0202, 0x00000000, 0x1b8b0202, 0x1b8e0202, 0x1b910202,
    0x1b940202, 0x1b970202, 0x00000000, 0x00000000, 0x00000000, 0x00000000, 0x1ba30202, 0x1ba60202,
    0x1ba90202, 0x1bac0202, 0x1baf0202, 0x1bb20202, 0x1bb50202, 0x00000000, 0x1bb80202, 0x1bbb0202,
    0x1bbe0202, 0x00000000, 0x1bc10202, 0x1bc40202, 0x1bc70202, 0x1bca0202, 0x00000000, 0x00000000,
    0x00000000, 0x00000000, 0x00000000, 0x00000000, 0x00000000, 0x01000400, 0x01000500, 0x00000000,
    0x00000000, 0x00000000, 0x00000000, 0x00000000, 0x00000000, 0x00000000, 0x1ba00202, 0x00000000,
    0x1b820402, 0x1b880202, 0x00000000, 0x00000000, 0x00000000, 0x00000000, 0x0c0c4202, 0x0c2b4202,
    0x0c3e4202, 0x0c504202, 0x0c624202, 0x0c754202, 0x0c884202, 0x0c9a4202, 0x0cac4202, 0x0cbe4202,
    0x00000000, 0x00000000, 0x00000000, 0x00000000, 0x00000000, 0x00000000, 0x00000000, 0x00000000,
    0x00000000, 0x00000000, 0x00000000, 0x00000000, 0x00000000, 0x00000000, 0x00000000, 0x00000000,
    0x00000000, 0x00000000, 0x1c020202, 0x1c030202, 0x00000000, 0x1c040202, 0x1c050202, 0x1c060202,
    0x1c070202, 0x1c080202, 0x1c090202, 0x1c0a0202, 0x1c0b0202, 0x00000000, 0x1c0c0202, 0x1c0d0202,
    0x1c0e0202, 0x00000000, 0x1c0f0202, 0x1c100202, 0x1c110202, 0x1c120202, 0x1c130202, 0x1c140202,
    0x1c150202, 0x1c160202, 0x1c170202, 0x1c180202, 0x1c190202, 0x1c1a0202, 0x1c1b0202, 0x1c1c0202,
    0x1c1d0202, 0x1c1e0202, 0x1c1f0202, 0x1c200202, 0x1c210202, 0x1c220202, 0x1c230202, 0x1c240202,
    0x1c250202, 0x00000000, 0x1c260202, 0x1c270202, 0x1c280202, 0x1c290202, 0x1c2a0202, 0x1c2b0202,
    0x1c2c0202, 0x1c2d0202, 0x1c2e0202, 0x1c2f0202, 0x1c300202, 0x1c310202, 0x1c320202, 0x1c330202,
    0x1c340202, 0x1c350202, 0x00000000, 0x00000000, 0x00000000, 0x00000000, 0x1c360202, 0x1c370202,
    0x1c380202, 0x01000300, 0x01000400, 0x01000500, 0x00000000, 0x00000000, 0x1c390202, 0x1c3a0202,
    0x1c3b0202, 0x00000000, 0x1c3c0202, 0x1c3d0202, 0x1c3e0202, 0x01000600, 0x00000000, 0x00000000,
    0x00000000, 0x00000000, 0x00000000, 0x00000000, 0x00000000, 0x00000000, 0x00000000, 0x1c3f0202,
    0x00000000, 0x00000000, 0x00000000, 0x00000000, 0x00000000, 0x00000000, 0x00000000, 0x00000000,
    0x1c400202, 0x1c410202, 0x00000000, 0x00000000, 0x00000000, 0x00000000, 0x0c0d4302, 0x0c2c4302,
    0x0c3f4302, 0x0c514302, 0x0c634302, 0x0c764302, 0x0c894302, 0x0c9b4302, 0x0cad4302, 0x0cbf4302,
    0x00000000, 0x00000000, 0x00000000, 0x00000000, 0x00000000, 0x00000000, 0x00000000, 0x00000000,
    0x00000000, 0x00000000, 0x00000000, 0x00000000, 0x00000000, 0x00000000, 0x00000000, 0x00000000,
    0x00000000, 0x00000000, 0x00000000, 0x00000000, 0x00000000, 0x00000000, 0x00000000, 0x00000000,
    0x00000000, 0x00000000, 0x00000000, 0x00000000, 0x00000000, 0x00000000, 0x00000000, 0x00000000,
    0x00000000, 0x00000000, 0x00000000, 0x00000000, 0x00000000, 0x00000000, 0x00000000, 0x00000000,
    0x00000000, 0x00000000, 0x00000000, 0x00000000, 0x00000000, 0x00000000, 0x00000000, 0x00000000,
    0x00000000, 0x00000000, 0x00000000, 0x00000000, 0x00000000, 0x00000000, 0x00000000, 0x00000000,
    0x00000000, 0x00000000, 0x00000000, 0x00000000, 0x00000000, 0x00000000, 0x00000000, 0x00000000,
    0x00000000, 0x00000000, 0x00000000, 0x00000000, 0x00000000, 0x00000000, 0x00000000, 0x00000000,
    0x00000000, 0x00000000, 0x00000000, 0x00000000, 0x00000000, 0x00000000, 0x00000000, 0x00000000,
    0x00000000, 0x00000000, 0x00000000, 0x00000000, 0x00000000, 0x00000000, 0x00000000, 0x00000000,
    0x00000000, 0x00000000, 0x00000000, 0x00000000, 0x00000000, 0x00000000, 0x00000000, 0x00000000,
    0x00000000, 0x00000000, 0x00000000, 0x00000000, 0x00000000, 0x00000000, 0x00000000, 0x00000000,
    0x00000000, 0x00000000, 0x00000000, 0x00000000, 0x00000000, 0x00000000, 0x00000000, 0x00000000,
    0x00000000, 0x00000000, 0x00000000, 0x00000000, 0x00000000, 0x00000000, 0x00000000, 0x00000000,
    0x00000000, 0x00000000, 0x00000000, 0x00000000, 0x00000000, 0x00000000, 0x00000000, 0x00000000,
    0x00000000, 0x00000000, 0x00000000, 0x00000000, 0x00000000, 0x00000000, 0x00000000, 0x00000000,
    0x00000000, 0x00000000, 0x00000000, 0x00000000, 0x00000000, 0x00000000, 0x00000000, 0x00000000,
    0x00000000, 0x1e070382, 0x1e0d0382, 0x1e130382, 0x1e190382, 0x1e1f0382, 0x1e250382, 0x1e2b0382,
    0x1e310382, 0x1e370382, 0x1e3d0382, 0x1e430382, 0x1e490382, 0x1e4f0382, 0x1e550382, 0x1e5b0382,
    0x1e610382, 0x1e670382, 0x1e6d0382, 0x1e730382, 0x1e790382, 0x1e7f0382, 0x1e850382, 0x1e8b0382,
    0x1e910382, 0x1e970382, 0x1e9d0382, 0x1ea30382, 0x1ea90382, 0x1eaf0382, 0x1eb50382, 0x1ebb0382,
    0x1ec10382, 0x1ec70382, 0x1ecd0382, 0x1ed30382, 0x1ed90382, 0x1edf0382, 0x1ee50382, 0x1eeb0382,
    0x1ef10382, 0x1ef70382, 0x1efd0382, 0x1f050382, 0x1f0b0382, 0x1f110382, 0x1f170382, 0x1f1d0382,
    0x1f1e0382, 0x1f1f0382, 0x1f200382, 0x1f210382, 0x1f220382, 0x1f230382, 0x1f240382, 0x1f250382,
    0x1f260382, 0x1f270382, 0x1f280382, 0x00000000, 0x00000000, 0x00000000, 0x00000000, 0x0af90202,
    0x1e0203c2, 0x1e0303c2, 0x1e0403c2, 0x1e0503c2, 0x1e0603c2, 0x1f290382, 0x1f2a0382, 0x01000200,
    0x01000300, 0x01000400, 0x01000500, 0x01000600, 0x01000000, 0x01000700, 0x1f2b0382, 0x1f2c0382,
    0x0c0e4402, 0x0c2d4402, 0x0c404402, 0x0c524402, 0x0c644402, 0x0c774402, 0x0c8a4402, 0x0c9c4402,
    0x0cae4402, 0x0cc04402, 0x1f2d0382, 0x1f2e0382, 0x00000000, 0x00000000, 0x00000000, 0x00000000,
    0x00000000, 0x00000000, 0x00000000, 0x00000000, 0x00000000, 0x00000000, 0x00000000, 0x00000000,
    0x00000000, 0x00000000, 0x00000000, 0x00000000, 0x00000000, 0x00000000, 0x00000000, 0x00000000,
    0x00000000, 0x00000000, 0x00000000, 0x00000000, 0x00000000, 0x00000000, 0x00000000, 0x00000000,
    0x00000000, 0x00000000, 0x00000000, 0x00000000, 0x00000000, 0x00000000, 0x00000000, 0x00000000,
    0x00000000, 0x1f020202, 0x1f030202, 0x00000000, 0x1f040202, 0x00000000, 0x00000000, 0x1f050202,
    0x1f060202, 0x00000000, 0x1f070202, 0x00000000, 0x00000000, 0x1f080202, 0x00000000, 0x00000000,
    0x00000000, 0x00000000, 0x00000000, 0x00000000, 0x1f090202, 0x1f0a0202, 0x1f0b0202, 0x1f0c0202,
    0x00000000, 0x1f0d0202, 0x1f0e0202, 0x1f0f0202, 0x1f100202, 0x1f110202, 0x1f120202, 0x1f130202,
    0x00000000, 0x1f140202, 0x1f150202, 0x1f160202, 0x00000000, 0x1f170202, 0x00000000, 0x1f180202,
    0x00000000, 0x00000000, 0x1f190202, 0x1f1a0202, 0x00000000, 0x1f1b0202, 0x1f1c0202, 0x1f1d0202,
    0x1f1e0202, 0x01000300, 0x1f1f0202, 0x1f200202, 0x01000400, 0x01000500, 0x01000600, 0x01000700,
    0x01000800, 0x01000900, 0x00000000, 0x01000a00, 0x01000b00, 0x1f210202, 0x00000000, 0x00000000,
    0x1f220202, 0x1f230202, 0x1f240202, 0x1f250202, 0x1f260202, 0x00000000, 0x1f270202, 0x00000000,
    0x01000c00, 0x01000d00, 0x01000e00, 0x01000f00, 0x01001000, 0x01001100, 0x00000000, 0x00000000,
    0x0c0f4502, 0x0c2e4502, 0x0c414502, 0x0c534502, 0x0c654502, 0x0c784502, 0x0c8b4502, 0x0c9d4502,
    0x0caf4502, 0x0cc14502, 0x00000000, 0x00000000, 0x1f280202, 0x1f290202, 0x00000000, 0x00000000,
    0x00000000, 0x00000000, 0x00000000, 0x00000000, 0x00000000, 0x00000000, 0x00000000, 0x00000000,
    0x00000000, 0x00000000, 0x00000000, 0x00000000, 0x00000000, 0x00000000, 0x00000000, 0x00000000,
    0x00000000, 0x00000000, 0x00000000, 0x00000000, 0x00000000, 0x00000000, 0x00000000, 0x00000000,
    0x00000000, 0x00000000, 0x00000000, 0x00000000, 0x00000000, 0x00000000, 0x00000000, 0x00000000,
    0x00000000, 0x00000000, 0x00000000, 0x00000000, 0x00000000, 0x00000000, 0x00000000, 0x00000000,
    0x00000000, 0x00000000, 0x00000000, 0x00000000, 0x00000000, 0x00000000, 0x00000000, 0x00000000,
    0x00000000, 0x00000000, 0x00000000, 0x00000000, 0x00000000, 0x00000000, 0x00000000, 0x00000000,
    0x00000000, 0x00000000, 0x00000000, 0x00000000, 0x00000000, 0x00000000, 0x00000000, 0x00000000,
    0x00000000, 0x00000000, 0x00000000, 0x00000000, 0x00000000, 0x00000000, 0x00000000, 0x00000000,
    0x00000000, 0x00000000, 0x00000000, 0x00000000, 0x00000000, 0x00000000, 0x00000000, 0x00000000,
    0x00000000, 0x00000000, 0x00000000, 0x00000000, 0x00000000, 0x00000000, 0x00000000, 0x00000000,
    0x00000000, 0x00000000, 0x00000000, 0x00000000, 0x00000000, 0x00000000, 0x00000000, 0x00000000,
    0x00000000, 0x00000000, 0x00000000, 0x00000000, 0x00000000, 0x00000000, 0x00000000, 0x00000000,
    0x00000000, 0x00000000, 0x00000000, 0x00000000, 0x00000000, 0x00000000, 0x00000000, 0x00000000,
    0x00000000, 0x00000000, 0x00000000, 0x00000000, 0x00000000, 0x00000000, 0x00000000, 0x00000000,
    0x00000000, 0x00000000, 0x00000000, 0x00000000, 0x00000000, 0x00000000, 0x00000000, 0x00000000,
    0x00000000, 0x00000000, 0x00000000, 0x00000000, 0x00000000, 0x00000000, 0x00000000, 0x00000000,
    0x00000000, 0x00000000, 0x00000000, 0x00000000, 0x00000000, 0x00000000, 0x00000000, 0x00000000,
    0x00000000, 0x00000000, 0x00000000, 0x00000000, 0x00000000, 0x00000000, 0x00000000, 0x00000000,
    0x00000000, 0x00000000, 0x00000000, 0x00000000, 0x00000000, 0x00000000, 0x00000000, 0x00000000,
    0x00000000, 0x00000000, 0x00000000, 0x00000000, 0x00000000, 0x00000000, 0x00000000, 0x00000000,
    0x00000000, 0x00000000, 0x00000000, 0x00000000, 0x00000000, 0x00000000, 0x00000000, 0x00000000,
    0x00000000, 0x00000000, 0x00000000, 0x00000000, 0x00000000, 0x00000000, 0x00000000, 0x00000000,
    0x00000000, 0x00000000, 0x00000000, 0x00000000, 0x00000000, 0x00000000, 0x00000000, 0x00000000,
    0x00000000, 0x00000000, 0x00000000, 0x00000000, 0x00000000, 0x00000000, 0x00000000, 0x00000000,
    0x00000000, 0x00000000, 0x00000000, 0x00000000, 0x00000000, 0x00000000, 0x00000000, 0x00000000,
    0x00000000, 0x00000000, 0x00000000, 0x00000000, 0x00000000, 0x00000000, 0x00000000, 0x00000000,
    0x00000000, 0x00000000, 0x00000000, 0x00000000, 0x00000000, 0x00000000, 0x00000000, 0x00000000,
    0x00000000, 0x00000000, 0x00000000, 0x00000000, 0x00000000, 0x00000000, 0x00000000, 0x00000000,
    0x00000000, 0x00000000, 0x00000000, 0x00000000, 0x00000000, 0x00000000, 0x00000000, 0x00000000,
    0x00000000, 0x00000000, 0x00000000, 0x00000000, 0x00000000, 0x00000000, 0x00000000, 0x00000000,
    0x00000000, 0x00000000, 0x00000000, 0x00000000, 0x00000000, 0x00000000, 0x00000000, 0x00000000,
    0x00000000, 0x00000000, 0x00000000, 0x00000000, 0x00000000, 0x00000000, 0x00000000, 0x00000000,
    0x00000000, 0x00000000, 0x00000000, 0x00000000, 0x00000000, 0x00000000, 0x00000000, 0x00000000,
    0x00000000, 0x00000000, 0x00000000, 0x00000000, 0x00000000, 0x00000000, 0x00000000, 0x00000000,
    0x00000000, 0x00000000, 0x00000000, 0x00000000, 0x00000000, 0x00000000, 0x00000000, 0x00000000,
    0x00000000, 0x00000000, 0x00000000, 0x00000000, 0x00000000, 0x00000000, 0x00000000, 0x00000000,
    0x00000000, 0x00000000, 0x00000000, 0x00000000, 0x00000000, 0x00000000, 0x00000000, 0x00000000,
    0x00000000, 0x00000000, 0x00000000, 0x00000000, 0x00000000, 0x00000000, 0x00000000, 0x00000000,
    0x00000000, 0x00000000, 0x00000000, 0x00000000, 0x00000000, 0x00000000, 0x00000000, 0x00000000,
    0x00000000, 0x00000000, 0x00000000, 0x00000000, 0x00000000, 0x00000000, 0x00000000, 0x00000000,
    0x00000000, 0x00000000, 0x00000000, 0x00000000, 0x00000000, 0x00000000, 0x00000000, 0x00000000,
    0x00000000, 0x00000000, 0x00000000, 0x00000000, 0x00000000, 0x00000000, 0x00000000, 0x00000000,
    0x00000000, 0x00000000, 0x00000000, 0x00000000, 0x00000000, 0x00000000, 0x00000000, 0x00000000,
    0x00000000, 0x00000000, 0x00000000, 0x00000000, 0x00000000, 0x00000000, 0x00000000, 0x00000000,
    0x00000000, 0x00000000, 0x00000000, 0x00000000, 0x00000000, 0x00000000, 0x00000000, 0x00000000,
    0x00000000, 0x00000000, 0x00000000, 0x00000000, 0x00000000, 0x00000000, 0x00000000, 0x00000000,
    0x00000000, 0x00000000, 0x00000000, 0x00000000, 0x00000000, 0x00000000, 0x00000000, 0x00000000,
    0x00000000, 0x00000000, 0x00000000, 0x00000000, 0x00000000, 0x00000000, 0x00000000, 0x00000000,
    0x00000000, 0x00000000, 0x00000000, 0x00000000, 0x00000000, 0x00000000, 0x00000000, 0x00000000,
    0x00000000, 0x00000000, 0x00000000, 0x00000000, 0x00000000, 0x00000000, 0x00000000, 0x00000000,
    0x00000000, 0x00000000, 0x00000000, 0x00000000, 0x00000000, 0x00000000, 0x00000000, 0x00000000,
    0x00000000, 0x00000000, 0x00000000, 0x00000000, 0x00000000, 0x00000000, 0x00000000, 0x00000000,
    0x00000000, 0x00000000, 0x00000000, 0x00000000, 0x00000000, 0x00000000, 0x00000000, 0x00000000,
    0x00000000, 0x00000000, 0x00000000, 0x00000000, 0x00000000, 0x00000000, 0x00000000, 0x00000000,
    0x00000000, 0x00000000, 0x00000000, 0x00000000, 0x00000000, 0x00000000, 0x00000000, 0x00000000,
    0x21050212, 0x210a0212, 0x210f0212, 0x21140212, 0x21190212, 0x211e0212, 0x21230212, 0x212d0212,
    0x21320212, 0x21370212, 0x213c0212, 0x21410212, 0x21460212, 0x21500212, 0x21550212, 0x215a0212,
    0x215f0212, 0x21640212, 0x21690212, 0x216e0212, 0x21780212, 0x217d0212, 0x21820212, 0x21870212,
    0x218c0212, 0x21910212, 0x21960212, 0x219b0212, 0x21a00212, 0x21a50212, 0x21aa0212, 0x21b40212,
    0x21b90212, 0x21280212, 0x214b0212, 0x21730212, 0x21af0212, 0x21d20212, 0x00000000, 0x00000000,
    0x00000000, 0x00000000, 0x00000000, 0x00000000, 0x00000000, 0x00000000, 0x00000000, 0x00000000,
    0x21050202, 0x210a0202, 0x210f0202, 0x21140202, 0x21190202, 0x211e0202, 0x21230202, 0x212d0202,
    0x21320202, 0x21370202, 0x213c0202, 0x21410202, 0x21460202, 0x21500202, 0x21550202, 0x215a0202,
    0x215f0202, 0x21640202, 0x21690202, 0x216e0202, 0x21780202, 0x217d0202, 0x21820202, 0x21870202,
    0x218c0202, 0x21910202, 0x21960202, 0x219b0202, 0x21a00202, 0x21a50202, 0x21aa0202, 0x21b40202,
    0x21b90202, 0x21280202, 0x214b0202, 0x21730202, 0x21af0202, 0x21d20202, 0x21d70202, 0x00000000,
    0x00000000, 0x00000000, 0x00000000, 0x07dc0202, 0x00000000, 0x00000000, 0x00000000, 0x00000000,
    0x04025202, 0x04535402, 0x04a75602, 0x04035902, 0x04555b02, 0x04a75d02, 0x04106002, 0x046a6202,
    0x04bf6402, 0x041f6702, 0x04796902, 0x04d56b02, 0x047b6e02, 0x04ce7002, 0x04247302, 0x04797502,
    0x04ca7702, 0x041d7a02, 0x04707c02, 0x04f95802, 0x04f85802, 0x04fa5802, 0x04fb5802, 0x04545b02,
    0x04fa5f02, 0x04fd5f02, 0x040d6002, 0x040e6002, 0x04636202, 0x04696202, 0x04bb6402, 0x04bc6402,
    0x04bd6402, 0x04126702, 0x04136702, 0x04146702, 0x04156702, 0x04166702, 0x04176702, 0x04186702,
    0x04196702, 0x041a6702, 0x041b6702, 0x041d6702, 0x041e6702, 0x04726902, 0x04736902, 0x04746902,
    0x04756902, 0x04766902, 0x04776902, 0x04786902, 0x047a6902, 0x04ce6b02, 0x04cd6b02, 0x04cf6b02,
    0x04d06b02, 0x04d16b02, 0x04d26b02, 0x04d36b02, 0x04206702, 0x047b6902, 0x04216702, 0x047c6902,
    0x04d46b02, 0x046c6e02, 0x046e6e02, 0x046f6e02, 0x04706e02, 0x04716e02, 0x04736e02, 0x046b6e02,
    0x04756e02, 0x04766e02, 0x04786e02, 0x04796e02, 0x047a6e02, 0x04237302, 0x047c6e02, 0x04cf7002,
    0x047d6e02, 0x04d07002, 0x04777502, 0x04787502, 0x04257302, 0x04267302, 0x046e7c02, 0x046f7c02,
    0x04c17e02, 0x04c27e02, 0x00000000, 0x00000000, 0x00000000, 0x00000000, 0x00000000, 0x04c77e02,
    0x041a6c02, 0x04d66b02, 0x04d76b02, 0x04d86b02, 0x04d96b02, 0x04da6b02, 0x04db6b02, 0x04dc6b02,
    0x04dd6b02, 0x04de6b02, 0x04df6b02, 0x04e06b02, 0x04e16b02, 0x04e26b02, 0x04e36b02, 0x04e46b02,
    0x04e56b02, 0x04e66b02, 0x04e76b02, 0x04e86b02, 0x04e96b02, 0x04ea6b02, 0x04eb6b02, 0x04ec6b02,
    0x04ed6b02, 0x04ee6b02, 0x04ef6b02, 0x04f06b02, 0x04f16b02, 0x04f26b02, 0x04f36b02, 0x04f46b02,
    0x04f56b02, 0x04f66b02, 0x04f76b02, 0x04f86b02, 0x04f96b02, 0x04fa6b02, 0x04fb6b02, 0x04fc6b02,
    0x04fd6b02, 0x04fe6b02, 0x04ff6b02, 0x04026c02, 0x04036c02, 0x04046c02, 0x04056c02, 0x04066c02,
    0x04076c02, 0x04086c02, 0x04096c02, 0x040a6c02, 0x040b6c02, 0x040c6c02, 0x040d6c02, 0x040e6c02,
    0x040f6c02, 0x04106c02, 0x04116c02, 0x04126c02, 0x04136c02, 0x04156c02, 0x04146c02, 0x04166c02,
    0x04176c02, 0x04186c02, 0x04196c02, 0x00000000, 0x00000000, 0x00000000, 0x00000000, 0x00000000,
    0x04025204, 0x04535404, 0x04a55604, 0x04a75604, 0x04fe5804, 0x04025904, 0x04035904, 0x04a75d04,
    0x04f85f04, 0x04fe5f04, 0x04036004, 0x04076004, 0x040a6004, 0x040b6004, 0x040c6004, 0x04106004,
    0x046a6204, 0x04126704, 0x041f6704, 0x04796904, 0x04d56b04, 0x047b6e04, 0x04247304, 0x04797504,
    0x04ca7704, 0x041d7a04, 0x04707c04, 0x04a45604, 0x04a65604, 0x04f95804, 0x04fa5804, 0x04fc5804,
    0x04fd5804, 0x04ff5804, 0x04545b04, 0x04565b04, 0x04f95f04, 0x04fa5f04, 0x04fb5f04, 0x04fc5f04,
    0x04fd5f04, 0x04ff5f04, 0x04026004, 0x04046004, 0x04056004, 0x04066004, 0x04086004, 0x04096004,
    0x040c6004, 0x040f6004, 0x04616204, 0x04626204, 0x04636204, 0x04646204, 0x04656204, 0x04666204,
    0x04676204, 0x04686204, 0x04696204, 0x04be6404, 0x041b6704, 0x041c6704, 0x041d6704, 0x04726904,
    0x04746904, 0x04756904, 0x04776904, 0x04d46b04, 0x046c6e04, 0x046d6e04, 0x046b6e04, 0x04776e04,
    0x047a6e04, 0x04726e04, 0x04746e04, 0x046e7c04, 0x046f7c04, 0x04c37e04, 0x04c47e04, 0x04c57e04,
    0x04c67e04, 0x04c27e04, 0x00000000, 0x00000000, 0x00000000, 0x00000000, 0x00000000, 0x00000000,
    0x00000000, 0x00000000, 0x00000000, 0x00000000, 0x00000000, 0x00000000, 0x00000000, 0x00000000,
    0x00000000, 0x00000000, 0x00000000, 0x00000000, 0x00000000, 0x00000000, 0x00000000, 0x00000000,
    0x00000000, 0x00000000, 0x00000000, 0x00000000, 0x00000000, 0x00000000, 0x00000000, 0x00000000,
    0x00000000, 0x00000000, 0x00000000, 0x00000000, 0x00000000, 0x00000000, 0x00000000, 0x00000000,
    0x00000000, 0x00000000, 0x00000000, 0x00000000, 0x00000000, 0x00000000, 0x00000000, 0x00000000,
    0x00000000, 0x00000000, 0x00000000, 0x00000000, 0x00000000, 0x00000000, 0x00000000, 0x00000000,
    0x00000000, 0x00000000, 0x00000000, 0x00000000, 0x00000000, 0x00000000, 0x00000000, 0x00000000,
    0x00000000, 0x00000000, 0x00000000, 0x00000000, 0x00000000, 0x00000000, 0x00000000, 0x00000000,
    0x00000000, 0x00000000, 0x00000000, 0x00000000, 0x00000000, 0x00000000, 0x00000000, 0x00000000,
    0x00000000, 0x00000000, 0x00000000, 0x00000000, 0x00000000, 0x00000000, 0x00000000, 0x00000000,
    0x00000000, 0x00000000, 0x00000000, 0x00000000, 0x00000000, 0x00000000, 0x00000000, 0x00000000,
    0x00000000, 0x00000000, 0x00000000, 0x00000000, 0x00000000, 0x00000000, 0x00000000, 0x00000000,
    0x00000000, 0x00000000, 0x00000000, 0x00000000, 0x00000000, 0x00000000, 0x00000000, 0x00000000,
    0x00000000, 0x00000000, 0x00000000, 0x00000000, 0x00000000, 0x00000000, 0x00000000, 0x00000000,
    0x00000000, 0x00000000, 0x00000000, 0x00000000, 0x00000000, 0x00000000, 0x00000000, 0x00000000,
    0x00000000, 0x00000000, 0x00000000, 0x00000000, 0x00000000, 0x00000000, 0x00000000, 0x00000000,
    0x00000000, 0x00000000, 0x00000000, 0x00000000, 0x00000000, 0x00000000, 0x00000000, 0x00000000,
    0x00000000, 0x00000000, 0x00000000, 0x00000000, 0x00000000, 0x00000000, 0x00000000, 0x00000000,
    0x00000000, 0x00000000, 0x00000000, 0x00000000, 0x00000000, 0x00000000, 0x00000000, 0x00000000,
    0x00000000, 0x00000000, 0x00000000, 0x00000000, 0x00000000, 0x00000000, 0x00000000, 0x00000000,
    0x00000000, 0x00000000, 0x00000000, 0x00000000, 0x00000000, 0x00000000, 0x00000000, 0x00000000,
    0x00000000, 0x00000000, 0x00000000, 0x00000000, 0x00000000, 0x00000000, 0x00000000, 0x00000000,
    0x00000000, 0x00000000, 0x00000000, 0x00000000, 0x00000000, 0x00000000, 0x00000000, 0x00000000,
    0x00000000, 0x00000000, 0x00000000, 0x00000000, 0x00000000, 0x00000000, 0x00000000, 0x00000000,
    0x00000000, 0x00000000, 0x00000000, 0x00000000, 0x00000000, 0x00000000, 0x00000000, 0x00000000,
    0x00000000, 0x00000000, 0x00000000, 0x00000000, 0x00000000, 0x00000000, 0x00000000, 0x00000000,
    0x00000000, 0x00000000, 0x00000000, 0x00000000, 0x00000000, 0x00000000, 0x00000000, 0x00000000,
    0x00000000, 0x00000000, 0x00000000, 0x00000000, 0x00000000, 0x00000000, 0x00000000, 0x00000000,
    0x00000000, 0x00000000, 0x00000000, 0x00000000, 0x00000000, 0x00000000, 0x00000000, 0x00000000,
    0x00000000, 0x00000000, 0x00000000, 0x00000000, 0x00000000, 0x00000000, 0x00000000, 0x00000000,
    0x00000000, 0x00000000, 0x00000000, 0x00000000, 0x00000000, 0x00000000, 0x00000000, 0x00000000,
    0x00000000, 0x00000000, 0x00000000, 0x00000000, 0x00000000, 0x00000000, 0x00000000, 0x00000000,
    0x00000000, 0x00000000, 0x00000000, 0x00000000, 0x00000000, 0x00000000, 0x00000000, 0x00000000,
    0x00000000, 0x00000000, 0x00000000, 0x00000000, 0x00000000, 0x00000000, 0x00000000, 0x00000000,
    0x00000000, 0x00000000, 0x00000000, 0x00000000, 0x00000000, 0x00000000, 0x00000000, 0x00000000,
    0x00000000, 0x00000000, 0x00000000, 0x00000000, 0x00000000, 0x00000000, 0x00000000, 0x00000000,
    0x00000000, 0x00000000, 0x00000000, 0x00000000, 0x00000000, 0x00000000, 0x00000000, 0x00000000,
    0x00000000, 0x00000000, 0x00000000, 0x00000000, 0x00000000, 0x00000000, 0x00000000, 0x00000000,
    0x00000000, 0x00000000, 0x00000000, 0x00000000, 0x00000000, 0x00000000, 0x00000000, 0x00000000,
    0x00000000, 0x00000000, 0x00000000, 0x00000000, 0x00000000, 0x00000000, 0x00000000, 0x00000000,
    0x00000000, 0x00000000, 0x00000000, 0x00000000, 0x00000000, 0x00000000, 0x00000000, 0x00000000,
    0x00000000, 0x00000000, 0x00000000, 0x00000000, 0x00000000, 0x00000000, 0x00000000, 0x00000000,
    0x00000000, 0x00000000, 0x00000000, 0x00000000, 0x00000000, 0x00000000, 0x00000000, 0x00000000,
    0x00000000, 0x00000000, 0x00000000, 0x00000000, 0x00000000, 0x00000000, 0x00000000, 0x00000000,
    0x00000000, 0x00000000, 0x00000000, 0x00000000, 0x00000000, 0x00000000, 0x00000000, 0x00000000,
    0x00000000, 0x00000000, 0x00000000, 0x00000000, 0x00000000, 0x00000000, 0x00000000, 0x00000000,
    0x00000000, 0x00000000, 0x00000000, 0x00000000, 0x00000000, 0x00000000, 0x00000000, 0x00000000,
    0x00000000, 0x00000000, 0x00000000, 0x00000000, 0x00000000, 0x00000000, 0x00000000, 0x00000000,
    0x00000000, 0x00000000, 0x00000000, 0x00000000, 0x00000000, 0x00000000, 0x00000000, 0x00000000,
    0x00000000, 0x00000000, 0x00000000, 0x00000000, 0x00000000, 0x00000000, 0x00000000, 0x00000000,
    0x00000000, 0x00000000, 0x00000000, 0x00000000, 0x00000000, 0x00000000, 0x00000000, 0x00000000,
    0x00000000, 0x00000000, 0x00000000, 0x00000000, 0x00000000, 0x00000000, 0x00000000, 0x00000000,
    0x00000000, 0x00000000, 0x00000000, 0x00000000, 0x00000000, 0x00000000, 0x00000000, 0x00000000,
    0x00000000, 0x00000000, 0x00000000, 0x00000000, 0x00000000, 0x00000000, 0x00000000, 0x00000000,
    0x00000000, 0x00000000, 0x00000000, 0x00000000, 0x00000000, 0x00000000, 0x00000000, 0x00000000,
    0x00000000, 0x00000000, 0x00000000, 0x00000000, 0x00000000, 0x00000000, 0x00000000, 0x00000000,
    0x00000000, 0x00000000, 0x00000000, 0x00000000, 0x00000000, 0x00000000, 0x00000000, 0x00000000,
    0x00000000, 0x00000000, 0x00000000, 0x00000000, 0x00000000, 0x00000000, 0x00000000, 0x00000000,
    0x00000000, 0x00000000, 0x00000000, 0x00000000, 0x00000000, 0x00000000, 0x00000000, 0x00000000,
    0x00000000, 0x00000000, 0x00000000, 0x00000000, 0x00000000, 0x00000000, 0x00000000, 0x00000000,
    0x00000000, 0x00000000, 0x00000000, 0x00000000, 0x00000000, 0x00000000, 0x00000000, 0x00000000,
    0x00000000, 0x00000000, 0x00000000, 0x00000000, 0x00000000, 0x00000000, 0x00000000, 0x00000000,
    0x00000000, 0x00000000, 0x00000000, 0x00000000, 0x00000000, 0x00000000, 0x00000000, 0x00000000,
    0x00000000, 0x00000000, 0x00000000, 0x00000000, 0x00000000, 0x00000000, 0x00000000, 0x00000000,
    0x00000000, 0x00000000, 0x00000000, 0x00000000, 0x00000000, 0x00000000, 0x00000000, 0x00000000,
    0x00000000, 0x00000000, 0x00000000, 0x00000000, 0x00000000, 0x00000000, 0x00000000, 0x00000000,
    0x00000000, 0x00000000, 0x00000000, 0x00000000, 0x00000000, 0x00000000, 0x00000000, 0x00000000,
    0x00000000, 0x00000000, 0x00000000, 0x00000000, 0x00000000, 0x00000000, 0x00000000, 0x00000000,
    0x00000000, 0x00000000, 0x00000000, 0x00000000, 0x00000000, 0x00000000, 0x00000000, 0x00000000,
    0x00000000, 0x00000000, 0x00000000, 0x00000000, 0x00000000, 0x00000000, 0x00000000, 0x00000000,
    0x00000000, 0x00000000, 0x00000000, 0x00000000, 0x00000000, 0x00000000, 0x00000000, 0x00000000,
    0x00000000, 0x00000000, 0x00000000, 0x00000000, 0x00000000, 0x00000000, 0x00000000, 0x00000000,
    0x00000000, 0x00000000, 0x00000000, 0x00000000, 0x00000000, 0x00000000, 0x00000000, 0x00000000,
    0x00000000, 0x00000000, 0x00000000, 0x00000000, 0x00000000, 0x00000000, 0x00000000, 0x00000000,
    0x00000000, 0x00000000, 0x00000000, 0x00000000, 0x00000000, 0x00000000, 0x00000000, 0x00000000,
    0x00000000, 0x00000000, 0x00000000, 0x00000000, 0x00000000, 0x00000000, 0x00000000, 0x00000000,
    0x00000000, 0x00000000, 0x00000000, 0x00000000, 0x00000000, 0x00000000, 0x00000000, 0x00000000,
    0x00000000, 0x00000000, 0x00000000, 0x00000000, 0x00000000, 0x00000000, 0x00000000, 0x00000000,
    0x00000000, 0x00000000, 0x00000000, 0x00000000, 0x00000000, 0x00000000, 0x00000000, 0x00000000,
    0x00000000, 0x00000000, 0x00000000, 0x00000000, 0x00000000, 0x00000000, 0x00000000, 0x00000000,
    0x00000000, 0x00000000, 0x00000000, 0x00000000, 0x00000000, 0x00000000, 0x00000000, 0x00000000,
    0x00000000, 0x00000000, 0x00000000, 0x00000000, 0x00000000, 0x00000000, 0x00000000, 0x00000000,
    0x00000000, 0x00000000, 0x00000000, 0x00000000, 0x00000000, 0x00000000, 0x00000000, 0x00000000,
    0x00000000, 0x00000000, 0x00000000, 0x00000000, 0x00000000, 0x00000000, 0x00000000, 0x00000000,
    0x00000000, 0x00000000, 0x00000000, 0x00000000, 0x00000000, 0x00000000, 0x00000000, 0x00000000,
    0x00000000, 0x00000000, 0x00000000, 0x00000000, 0x00000000, 0x00000000, 0x00000000, 0x00000000,
    0x00000000, 0x00000000, 0x00000000, 0x00000000, 0x00000000, 0x00000000, 0x00000000, 0x00000000,
    0x00000000, 0x00000000, 0x00000000, 0x00000000, 0x00000000, 0x00000000, 0x00000000, 0x00000000,
    0x00000000, 0x00000000, 0x00000000, 0x00000000, 0x00000000, 0x00000000, 0x00000000, 0x00000000,
    0x00000000, 0x00000000, 0x00000000, 0x00000000, 0x00000000, 0x00000000, 0x00000000, 0x00000000,
    0x00000000, 0x00000000, 0x00000000, 0x00000000, 0x00000000, 0x00000000, 0x00000000, 0x00000000,
    0x00000000, 0x00000000, 0x00000000, 0x00000000, 0x00000000, 0x00000000, 0x00000000, 0x00000000,
    0x00000000, 0x00000000, 0x00000000, 0x00000000, 0x00000000, 0x00000000, 0x00000000, 0x00000000,
    0x00000000, 0x00000000, 0x00000000, 0x00000000, 0x00000000, 0x00000000, 0x00000000, 0x00000000,
    0x00000000, 0x00000000, 0x00000000, 0x00000000, 0x00000000, 0x00000000, 0x00000000, 0x00000000,
    0x00000000, 0x00000000, 0x00000000, 0x00000000, 0x00000000, 0x00000000, 0x00000000, 0x00000000,
    0x00000000, 0x00000000, 0x00000000, 0x00000000, 0x00000000, 0x00000000, 0x00000000, 0x00000000,
    0x00000000, 0x00000000, 0x00000000, 0x00000000, 0x00000000, 0x00000000, 0x00000000, 0x00000000,
    0x00000000, 0x00000000, 0x00000000, 0x00000000, 0x00000000, 0x00000000, 0x00000000, 0x00000000,
    0x00000000, 0x00000000, 0x00000000, 0x00000000, 0x00000000, 0x00000000, 0x00000000, 0x00000000,
    0x00000000, 0x00000000, 0x00000000, 0x00000000, 0x00000000, 0x00000000, 0x00000000, 0x00000000,
    0x00000000, 0x00000000, 0x00000000, 0x00000000, 0x00000000, 0x00000000, 0x00000000, 0x00000000,
    0x00000000, 0x00000000, 0x00000000, 0x00000000, 0x00000000, 0x00000000, 0x00000000, 0x00000000,
    0x00000000, 0x00000000, 0x00000000, 0x00000000, 0x00000000, 0x00000000, 0x00000000, 0x00000000,
    0x00000000, 0x00000000, 0x00000000, 0x00000000, 0x00000000, 0x00000000, 0x00000000, 0x00000000,
    0x00000000, 0x00000000, 0x00000000, 0x00000000, 0x00000000, 0x00000000, 0x00000000, 0x00000000,
    0x00000000, 0x00000000, 0x00000000, 0x00000000, 0x00000000, 0x00000000, 0x00000000, 0x00000000,
    0x00000000, 0x00000000, 0x00000000, 0x00000000, 0x00000000, 0x00000000, 0x00000000, 0x00000000,
    0x00000000, 0x00000000, 0x00000000, 0x00000000, 0x00000000, 0x00000000, 0x00000000, 0x00000000,
    0x00000000, 0x00000000, 0x00000000, 0x00000000, 0x00000000, 0x00000000, 0x00000000, 0x00000000,
    0x00000000, 0x00000000, 0x00000000, 0x00000000, 0x00000000, 0x00000000, 0x00000000, 0x00000000,
    0x00000000, 0x00000000, 0x00000000, 0x00000000, 0x00000000, 0x00000000, 0x00000000, 0x00000000,
    0x00000000, 0x00000000, 0x00000000, 0x00000000, 0x00000000, 0x00000000, 0x00000000, 0x00000000,
    0x00000000, 0x00000000, 0x00000000, 0x00000000, 0x00000000, 0x00000000, 0x00000000, 0x00000000,
    0x00000000, 0x00000000, 0x00000000, 0x00000000, 0x00000000, 0x00000000, 0x00000000, 0x00000000,
    0x00000000, 0x00000000, 0x00000000, 0x00000000, 0x00000000, 0x00000000, 0x00000000, 0x00000000,
    0x00000000, 0x00000000, 0x00000000, 0x00000000, 0x00000000, 0x00000000, 0x00000000, 0x00000000,
    0x00000000, 0x00000000, 0x00000000, 0x00000000, 0x00000000, 0x00000000, 0x00000000, 0x00000000,
    0x00000000, 0x00000000, 0x00000000, 0x00000000, 0x00000000, 0x00000000, 0x00000000, 0x00000000,
    0x00000000, 0x00000000, 0x00000000, 0x00000000, 0x00000000, 0x00000000, 0x00000000, 0x00000000,
    0x00000000, 0x00000000, 0x00000000, 0x00000000, 0x00000000, 0x00000000, 0x00000000, 0x00000000,
    0x00000000, 0x00000000, 0x00000000, 0x00000000, 0x00000000, 0x00000000, 0x00000000, 0x00000000,
    0x00000000, 0x00000000, 0x00000000, 0x00000000, 0x00000000, 0x00000000, 0x00000000, 0x00000000,
    0x00000000, 0x00000000, 0x00000000, 0x00000000, 0x00000000, 0x00000000, 0x00000000, 0x00000000,
    0x00000000, 0x00000000, 0x00000000, 0x00000000, 0x00000000, 0x00000000, 0x00000000, 0x00000000,
    0x00000000, 0x00000000, 0x00000000, 0x00000000, 0x00000000, 0x00000000, 0x00000000, 0x00000000,
    0x00000000, 0x00000000, 0x00000000, 0x00000000, 0x00000000, 0x00000000, 0x00000000, 0x00000000,
    0x00000000, 0x00000000, 0x00000000, 0x00000000, 0x00000000, 0x00000000, 0x00000000, 0x00000000,
    0x00000000, 0x00000000, 0x00000000, 0x00000000, 0x00000000, 0x00000000, 0x00000000, 0x00000000,
    0x00000000, 0x00000000, 0x00000000, 0x00000000, 0x00000000, 0x00000000, 0x00000000, 0x00000000,
    0x00000000, 0x00000000, 0x00000000, 0x00000000, 0x00000000, 0x00000000, 0x00000000, 0x00000000,
    0x00000000, 0x00000000, 0x00000000, 0x00000000, 0x00000000, 0x00000000, 0x00000000, 0x00000000,
    0x00000000, 0x00000000, 0x00000000, 0x00000000, 0x00000000, 0x00000000, 0x00000000, 0x00000000,
    0x00000000, 0x00000000, 0x00000000, 0x00000000, 0x00000000, 0x00000000, 0x00000000, 0x00000000,
    0x00000000, 0x00000000, 0x00000000, 0x00000000, 0x00000000, 0x00000000, 0x00000000, 0x00000000,
    0x00000000, 0x00000000, 0x00000000, 0x00000000, 0x00000000, 0x00000000, 0x00000000, 0x00000000,
    0x00000000, 0x00000000, 0x00000000, 0x00000000, 0x00000000, 0x00000000, 0x00000000, 0x00000000,
    0x00000000, 0x00000000, 0x00000000, 0x00000000, 0x00000000, 0x00000000, 0x00000000, 0x00000000,
    0x00000000, 0x00000000, 0x00000000, 0x00000000, 0x00000000, 0x00000000, 0x00000000, 0x00000000,
    0x00000000, 0x00000000, 0x00000000, 0x00000000, 0x00000000, 0x00000000, 0x00000000, 0x00000000,
    0x00000000, 0x00000000, 0x00000000, 0x00000000, 0x00000000, 0x00000000, 0x00000000, 0x00000000,
    0x00000000, 0x00000000, 0x00000000, 0x00000000, 0x00000000, 0x00000000, 0x00000000, 0x00000000,
    0x00000000, 0x00000000, 0x00000000, 0x00000000, 0x00000000, 0x00000000, 0x00000000, 0x00000000,
    0x00000000, 0x00000000, 0x00000000, 0x00000000, 0x00000000, 0x00000000, 0x00000000, 0x00000000,
    0x00000000, 0x00000000, 0x00000000, 0x00000000, 0x00000000, 0x00000000, 0x00000000, 0x00000000,
    0x00000000, 0x00000000, 0x00000000, 0x00000000, 0x00000000, 0x00000000, 0x00000000, 0x00000000,
    0x00000000, 0x00000000, 0x00000000, 0x00000000, 0x00000000, 0x00000000, 0x00000000, 0x00000000,
    0x00000000, 0x00000000, 0x00000000, 0x00000000, 0x00000000, 0x00000000, 0x00000000, 0x00000000,
    0x00000000, 0x00000000, 0x00000000, 0x00000000, 0x00000000, 0x00000000, 0x00000000, 0x00000000,
    0x00000000, 0x00000000, 0x00000000, 0x00000000, 0x00000000, 0x00000000, 0x00000000, 0x00000000,
    0x00000000, 0x00000000, 0x00000000, 0x00000000, 0x00000000, 0x00000000, 0x00000000, 0x00000000,
    0x00000000, 0x00000000, 0x00000000, 0x00000000, 0x00000000, 0x00000000, 0x00000000, 0x00000000,
    0x00000000, 0x00000000, 0x00000000, 0x00000000, 0x00000000, 0x00000000, 0x00000000, 0x00000000,
    0x00000000, 0x00000000, 0x00000000, 0x00000000, 0x00000000, 0x00000000, 0x00000000, 0x00000000,
    0x00000000, 0x00000000, 0x00000000, 0x00000000, 0x00000000, 0x00000000, 0x00000000, 0x00000000,
    0x00000000, 0x00000000, 0x00000000, 0x00000000, 0x00000000, 0x00000000, 0x00000000, 0x00000000,
    0x00000000, 0x00000000, 0x00000000, 0x00000000, 0x00000000, 0x00000000, 0x00000000, 0x00000000,
    0x00000000, 0x00000000, 0x00000000, 0x00000000, 0x00000000, 0x00000000, 0x00000000, 0x00000000,
    0x00000000, 0x00000000, 0x00000000, 0x00000000, 0x00000000, 0x00000000, 0x00000000, 0x00000000,
    0x00000000, 0x00000000, 0x00000000, 0x00000000, 0x00000000, 0x00000000, 0x00000000, 0x00000000,
    0x00000000, 0x00000000, 0x00000000, 0x00000000, 0x00000000, 0x00000000, 0x00000000, 0x00000000,
    0x00000000, 0x00000000, 0x00000000, 0x00000000, 0x00000000, 0x00000000, 0x00000000, 0x00000000,
    0x00000000, 0x00000000, 0x00000000, 0x00000000, 0x00000000, 0x00000000, 0x00000000, 0x00000000,
    0x00000000, 0x00000000, 0x00000000, 0x00000000, 0x00000000, 0x00000000, 0x00000000, 0x00000000,
    0x00000000, 0x00000000, 0x00000000, 0x00000000, 0x00000000, 0x00000000, 0x00000000, 0x00000000,
    0x00000000, 0x00000000, 0x00000000, 0x00000000, 0x00000000, 0x00000000, 0x00000000, 0x00000000,
    0x00000000, 0x00000000, 0x00000000, 0x00000000, 0x00000000, 0x00000000, 0x00000000, 0x00000000,
    0x00000000, 0x00000000, 0x00000000, 0x00000000, 0x00000000, 0x00000000, 0x00000000, 0x00000000,
    0x00000000, 0x00000000, 0x00000000, 0x00000000, 0x00000000, 0x00000000, 0x00000000, 0x00000000,
    0x00000000, 0x00000000, 0x00000000, 0x00000000, 0x00000000, 0x00000000, 0x00000000, 0x00000000,
    0x00000000, 0x00000000, 0x00000000, 0x00000000, 0x00000000, 0x00000000, 0x00000000, 0x00000000,
    0x00000000, 0x00000000, 0x00000000, 0x00000000, 0x00000000, 0x00000000, 0x00000000, 0x00000000,
    0x00000000, 0x00000000, 0x00000000, 0x00000000, 0x00000000, 0x00000000, 0x00000000, 0x00000000,
    0x00000000, 0x00000000, 0x00000000, 0x00000000, 0x00000000, 0x00000000, 0x00000000, 0x00000000,
    0x00000000, 0x00000000, 0x00000000, 0x00000000, 0x00000000, 0x00000000, 0x00000000, 0x00000000,
    0x00000000, 0x00000000, 0x00000000, 0x00000000, 0x00000000, 0x00000000, 0x00000000, 0x00000000,
    0x00000000, 0x00000000, 0x00000000, 0x00000000, 0x00000000, 0x00000000, 0x00000000, 0x00000000,
    0x00000000, 0x00000000, 0x00000000, 0x00000000, 0x00000000, 0x00000000, 0x00000000, 0x00000000,
    0x00000000, 0x00000000, 0x00000000, 0x00000000, 0x00000000, 0x00000000, 0x00000000, 0x00000000,
    0x00000000, 0x00000000, 0x00000000, 0x00000000, 0x00000000, 0x00000000, 0x00000000, 0x00000000,
    0x00000000, 0x00000000, 0x00000000, 0x00000000, 0x00000000, 0x00000000, 0x00000000, 0x00000000,
    0x00000000, 0x00000000, 0x00000000, 0x00000000, 0x00000000, 0x00000000, 0x00000000, 0x00000000,
    0x00000000, 0x00000000, 0x00000000, 0x00000000, 0x00000000, 0x00000000, 0x00000000, 0x00000000,
    0x00000000, 0x00000000, 0x00000000, 0x00000000, 0x00000000, 0x00000000, 0x00000000, 0x00000000,
    0x00000000, 0x00000000, 0x00000000, 0x00000000, 0x00000000, 0x00000000, 0x00000000, 0x00000000,
    0x00000000, 0x00000000, 0x00000000, 0x00000000, 0x00000000, 0x00000000, 0x00000000, 0x00000000,
    0x00000000, 0x00000000, 0x00000000, 0x00000000, 0x00000000, 0x00000000, 0x00000000, 0x00000000,
    0x00000000, 0x00000000, 0x00000000, 0x00000000, 0x00000000, 0x00000000, 0x00000000, 0x00000000,
    0x00000000, 0x00000000, 0x00000000, 0x00000000, 0x00000000, 0x00000000, 0x00000000, 0x00000000,
    0x00000000, 0x00000000, 0x00000000, 0x00000000, 0x00000000, 0x00000000, 0x00000000, 0x00000000,
    0x00000000, 0x00000000, 0x00000000, 0x00000000, 0x00000000, 0x00000000, 0x00000000, 0x00000000,
    0x00000000, 0x00000000, 0x00000000, 0x00000000, 0x00000000, 0x00000000, 0x00000000, 0x00000000,
    0x00000000, 0x00000000, 0x00000000, 0x00000000, 0x00000000, 0x00000000, 0x00000000, 0x00000000,
    0x00000000, 0x00000000, 0x00000000, 0x00000000, 0x00000000, 0x00000000, 0x00000000, 0x00000000,
    0x00000000, 0x00000000, 0x00000000, 0x00000000, 0x00000000, 0x00000000, 0x00000000, 0x00000000,
    0x00000000, 0x00000000, 0x00000000, 0x00000000, 0x00000000, 0x00000000, 0x00000000, 0x00000000,
    0x00000000, 0x00000000, 0x00000000, 0x00000000, 0x00000000, 0x00000000, 0x00000000, 0x00000000,
    0x00000000, 0x00000000, 0x00000000, 0x00000000, 0x00000000, 0x00000000, 0x00000000, 0x00000000,
    0x00000000, 0x00000000, 0x00000000, 0x00000000, 0x00000000, 0x00000000, 0x00000000, 0x00000000,
    0x00000000, 0x00000000, 0x00000000, 0x00000000, 0x00000000, 0x00000000, 0x00000000, 0x00000000,
    0x00000000, 0x00000000, 0x00000000, 0x00000000, 0x00000000, 0x00000000, 0x00000000, 0x00000000,
    0x00000000, 0x00000000, 0x00000000, 0x00000000, 0x00000000, 0x00000000, 0x00000000, 0x00000000,
    0x00000000, 0x00000000, 0x00000000, 0x00000000, 0x00000000, 0x00000000, 0x00000000, 0x00000000,
    0x00000000, 0x00000000, 0x00000000, 0x00000000, 0x00000000, 0x00000000, 0x00000000, 0x00000000,
    0x00000000, 0x00000000, 0x00000000, 0x00000000, 0x00000000, 0x00000000, 0x00000000, 0x00000000,
    0x00000000, 0x00000000, 0x00000000, 0x00000000, 0x00000000, 0x00000000, 0x00000000, 0x00000000,
    0x00000000, 0x00000000, 0x00000000, 0x00000000, 0x00000000, 0x00000000, 0x00000000, 0x00000000,
    0x00000000, 0x00000000, 0x00000000, 0x00000000, 0x00000000, 0x00000000, 0x00000000, 0x00000000,
    0x00000000, 0x00000000, 0x00000000, 0x00000000, 0x00000000, 0x00000000, 0x00000000, 0x00000000,
    0x00000000, 0x00000000, 0x00000000, 0x00000000, 0x00000000, 0x00000000, 0x00000000, 0x00000000,
    0x00000000, 0x00000000, 0x00000000, 0x00000000, 0x00000000, 0x00000000, 0x00000000, 0x00000000,
    0x00000000, 0x00000000, 0x00000000, 0x00000000, 0x00000000, 0x00000000, 0x00000000, 0x00000000,
    0x00000000, 0x00000000, 0x00000000, 0x00000000, 0x00000000, 0x00000000, 0x00000000, 0x00000000,
    0x00000000, 0x00000000, 0x00000000, 0x00000000, 0x00000000, 0x00000000, 0x00000000, 0x00000000,
    0x00000000, 0x00000000, 0x00000000, 0x00000000, 0x00000000, 0x00000000, 0x00000000, 0x00000000,
    0x00000000, 0x00000000, 0x00000000, 0x00000000, 0x00000000, 0x00000000, 0x00000000, 0x00000000,
    0x00000000, 0x00000000, 0x00000000, 0x00000000, 0x00000000, 0x00000000, 0x00000000, 0x00000000,
    0x00000000, 0x00000000, 0x00000000, 0x00000000, 0x00000000, 0x00000000, 0x00000000, 0x00000000,
    0x00000000, 0x00000000, 0x00000000, 0x00000000, 0x00000000, 0x00000000, 0x00000000, 0x00000000,
    0x00000000, 0x00000000, 0x00000000, 0x00000000, 0x00000000, 0x00000000, 0x00000000, 0x00000000,
    0x00000000, 0x00000000, 0x00000000, 0x00000000, 0x00000000, 0x00000000, 0x00000000, 0x00000000,
    0x00000000, 0x00000000, 0x00000000, 0x00000000, 0x00000000, 0x00000000, 0x00000000, 0x00000000,
    0x00000000, 0x00000000, 0x00000000, 0x00000000, 0x00000000, 0x00000000, 0x00000000, 0x00000000,
    0x00000000, 0x00000000, 0x00000000, 0x00000000, 0x00000000, 0x00000000, 0x00000000, 0x00000000,
    0x00000000, 0x00000000, 0x00000000, 0x00000000, 0x00000000, 0x00000000, 0x00000000, 0x00000000,
    0x00000000, 0x00000000, 0x00000000, 0x00000000, 0x00000000, 0x00000000, 0x00000000, 0x00000000,
    0x00000000, 0x00000000, 0x00000000, 0x00000000, 0x00000000, 0x00000000, 0x00000000, 0x00000000,
    0x00000000, 0x00000000, 0x00000000, 0x00000000, 0x00000000, 0x00000000, 0x00000000, 0x00000000,
    0x00000000, 0x00000000, 0x00000000, 0x00000000, 0x00000000, 0x00000000, 0x00000000, 0x00000000,
    0x00000000, 0x00000000, 0x00000000, 0x00000000, 0x00000000, 0x00000000, 0x00000000, 0x00000000,
    0x00000000, 0x00000000, 0x00000000, 0x00000000, 0x00000000, 0x00000000, 0x00000000, 0x00000000,
    0x00000000, 0x00000000, 0x00000000, 0x00000000, 0x00000000, 0x00000000, 0x00000000, 0x00000000,
    0x00000000, 0x00000000, 0x00000000, 0x00000000, 0x00000000, 0x00000000, 0x00000000, 0x00000000,
    0x00000000, 0x00000000, 0x00000000, 0x00000000, 0x00000000, 0x00000000, 0x00000000, 0x00000000,
    0x00000000, 0x00000000, 0x00000000, 0x00000000, 0x00000000, 0x00000000, 0x00000000, 0x00000000,
    0x00000000, 0x00000000, 0x00000000, 0x00000000, 0x00000000, 0x00000000, 0x00000000, 0x00000000,
    0x00000000, 0x00000000, 0x00000000, 0x00000000, 0x00000000, 0x00000000, 0x00000000, 0x00000000,
    0x00000000, 0x00000000, 0x00000000, 0x00000000, 0x00000000, 0x00000000, 0x00000000, 0x00000000,
    0x00000000, 0x00000000, 0x00000000, 0x00000000, 0x00000000, 0x00000000, 0x00000000, 0x00000000,
    0x00000000, 0x00000000, 0x00000000, 0x00000000, 0x00000000, 0x00000000, 0x00000000, 0x00000000,
    0x00000000, 0x00000000, 0x00000000, 0x00000000, 0x00000000, 0x00000000, 0x00000000, 0x00000000,
    0x00000000, 0x00000000, 0x00000000, 0x00000000, 0x00000000, 0x00000000, 0x00000000, 0x00000000,
    0x00000000, 0x00000000, 0x00000000, 0x00000000, 0x00000000, 0x00000000, 0x00000000, 0x00000000,
    0x00000000, 0x00000000, 0x00000000, 0x00000000, 0x00000000, 0x00000000, 0x00000000, 0x00000000,
    0x00000000, 0x00000000, 0x00000000, 0x00000000, 0x00000000, 0x00000000, 0x00000000, 0x00000000,
    0x00000000, 0x00000000, 0x00000000, 0x00000000, 0x00000000, 0x00000000, 0x00000000, 0x00000000,
    0x00000000, 0x00000000, 0x00000000, 0x00000000, 0x00000000, 0x00000000, 0x00000000, 0x00000000,
    0x00000000, 0x00000000, 0x00000000, 0x00000000, 0x00000000, 0x00000000, 0x00000000, 0x00000000,
    0x00000000, 0x00000000, 0x00000000, 0x00000000, 0x00000000, 0x00000000, 0x00000000, 0x00000000,
    0x00000000, 0x00000000, 0x00000000, 0x00000000, 0x00000000, 0x00000000, 0x00000000, 0x00000000,
    0x00000000, 0x00000000, 0x00000000, 0x00000000, 0x00000000, 0x00000000, 0x00000000, 0x00000000,
    0x00000000, 0x00000000, 0x00000000, 0x00000000, 0x00000000, 0x00000000, 0x00000000, 0x00000000,
    0x00000000, 0x00000000, 0x00000000, 0x00000000, 0x00000000, 0x00000000, 0x00000000, 0x00000000,
    0x00000000, 0x00000000, 0x00000000, 0x00000000, 0x00000000, 0x00000000, 0x00000000, 0x00000000,
    0x00000000, 0x00000000, 0x00000000, 0x00000000, 0x00000000, 0x00000000, 0x00000000, 0x00000000,
    0x00000000, 0x00000000, 0x00000000, 0x00000000, 0x00000000, 0x00000000, 0x00000000, 0x00000000,
    0x00000000, 0x00000000, 0x00000000, 0x00000000, 0x00000000, 0x00000000, 0x00000000, 0x00000000,
    0x00000000, 0x00000000, 0x00000000, 0x00000000, 0x00000000, 0x00000000, 0x00000000, 0x00000000,
    0x00000000, 0x00000000, 0x00000000, 0x00000000, 0x00000000, 0x00000000, 0x00000000, 0x00000000,
    0x00000000, 0x00000000, 0x00000000, 0x00000000, 0x00000000, 0x00000000, 0x00000000, 0x00000000,
    0x00000000, 0x00000000, 0x00000000, 0x00000000, 0x00000000, 0x00000000, 0x00000000, 0x00000000,
    0x00000000, 0x00000000, 0x00000000, 0x00000000, 0x00000000, 0x00000000, 0x00000000, 0x00000000,
    0x00000000, 0x00000000, 0x00000000, 0x00000000, 0x00000000, 0x00000000, 0x00000000, 0x00000000,
    0x00000000, 0x00000000, 0x00000000, 0x00000000, 0x00000000, 0x00000000, 0x00000000, 0x00000000,
    0x00000000, 0x00000000, 0x00000000, 0x00000000, 0x00000000, 0x00000000, 0x00000000, 0x00000000,
    0x00000000, 0x00000000, 0x00000000, 0x00000000, 0x00000000, 0x00000000, 0x00000000, 0x00000000,
    0x00000000, 0x00000000, 0x00000000, 0x00000000, 0x00000000, 0x00000000, 0x00000000, 0x00000000,
    0x00000000, 0x00000000, 0x00000000, 0x00000000, 0x00000000, 0x00000000, 0x00000000, 0x00000000,
    0x00000000, 0x00000000, 0x00000000, 0x00000000, 0x00000000, 0x00000000, 0x00000000, 0x00000000,
    0x00000000, 0x00000000, 0x00000000, 0x00000000, 0x00000000, 0x00000000, 0x00000000, 0x00000000,
    0x00000000, 0x00000000, 0x00000000, 0x00000000, 0x00000000, 0x00000000, 0x00000000, 0x00000000,
    0x00000000, 0x00000000, 0x00000000, 0x00000000, 0x00000000, 0x00000000, 0x00000000, 0x00000000,
    0x00000000, 0x00000000, 0x00000000, 0x00000000, 0x00000000, 0x00000000, 0x00000000, 0x00000000,
    0x00000000, 0x00000000, 0x00000000, 0x00000000, 0x00000000, 0x00000000, 0x00000000, 0x00000000,
    0x00000000, 0x00000000, 0x00000000, 0x00000000, 0x00000000, 0x00000000, 0x00000000, 0x00000000,
    0x00000000, 0x00000000, 0x00000000, 0x00000000, 0x00000000, 0x00000000, 0x00000000, 0x00000000,
    0x00000000, 0x00000000, 0x00000000, 0x00000000, 0x00000000, 0x00000000, 0x00000000, 0x00000000,
    0x00000000, 0x00000000, 0x00000000, 0x00000000, 0x00000000, 0x00000000, 0x00000000, 0x00000000,
    0x00000000, 0x00000000, 0x00000000, 0x00000000, 0x00000000, 0x00000000, 0x00000000, 0x00000000,
    0x00000000, 0x00000000, 0x00000000, 0x00000000, 0x00000000, 0x00000000, 0x00000000, 0x00000000,
    0x00000000, 0x00000000, 0x00000000, 0x00000000, 0x00000000, 0x00000000, 0x00000000, 0x00000000,
    0x00000000, 0x00000000, 0x00000000, 0x00000000, 0x00000000, 0x00000000, 0x00000000, 0x00000000,
    0x00000000, 0x00000000, 0x00000000, 0x00000000, 0x00000000, 0x00000000, 0x00000000, 0x00000000,
    0x00000000, 0x00000000, 0x00000000, 0x00000000, 0x00000000, 0x00000000, 0x00000000, 0x00000000,
    0x00000000, 0x00000000, 0x00000000, 0x00000000, 0x00000000, 0x00000000, 0x00000000, 0x00000000,
    0x00000000, 0x00000000, 0x00000000, 0x00000000, 0x00000000, 0x00000000, 0x00000000, 0x00000000,
    0x00000000, 0x00000000, 0x00000000, 0x00000000, 0x00000000, 0x00000000, 0x00000000, 0x00000000,
    0x00000000, 0x00000000, 0x00000000, 0x00000000, 0x00000000, 0x00000000, 0x00000000, 0x00000000,
    0x00000000, 0x00000000, 0x00000000, 0x00000000, 0x00000000, 0x00000000, 0x00000000, 0x00000000,
    0x00000000, 0x00000000, 0x00000000, 0x00000000, 0x00000000, 0x00000000, 0x00000000, 0x00000000,
    0x00000000, 0x00000000, 0x00000000, 0x00000000, 0x00000000, 0x00000000, 0x00000000, 0x00000000,
    0x00000000, 0x00000000, 0x00000000, 0x00000000, 0x00000000, 0x00000000, 0x00000000, 0x00000000,
    0x00000000, 0x00000000, 0x00000000, 0x00000000, 0x00000000, 0x00000000, 0x00000000, 0x00000000,
    0x00000000, 0x00000000, 0x00000000, 0x00000000, 0x00000000, 0x00000000, 0x00000000, 0x00000000,
    0x00000000, 0x00000000, 0x00000000, 0x00000000, 0x00000000, 0x00000000, 0x00000000, 0x00000000,
    0x00000000, 0x00000000, 0x00000000, 0x00000000, 0x00000000, 0x00000000, 0x00000000, 0x00000000,
    0x00000000, 0x00000000, 0x00000000, 0x00000000, 0x00000000, 0x00000000, 0x00000000, 0x00000000,
    0x00000000, 0x00000000, 0x00000000, 0x00000000, 0x00000000, 0x00000000, 0x00000000, 0x00000000,
    0x00000000, 0x00000000, 0x00000000, 0x00000000, 0x00000000, 0x00000000, 0x00000000, 0x00000000,
    0x00000000, 0x00000000, 0x00000000, 0x00000000, 0x00000000, 0x00000000, 0x00000000, 0x00000000,
    0x00000000, 0x00000000, 0x00000000, 0x00000000, 0x00000000, 0x00000000, 0x00000000, 0x00000000,
    0x00000000, 0x00000000, 0x00000000, 0x00000000, 0x00000000, 0x00000000, 0x00000000, 0x00000000,
    0x00000000, 0x00000000, 0x00000000, 0x00000000, 0x00000000, 0x00000000, 0x00000000, 0x00000000,
    0x00000000, 0x00000000, 0x00000000, 0x00000000, 0x00000000, 0x00000000, 0x00000000, 0x00000000,
    0x00000000, 0x00000000, 0x00000000, 0x00000000, 0x00000000, 0x00000000, 0x00000000, 0x00000000,
    0x00000000, 0x00000000, 0x00000000, 0x00000000, 0x00000000, 0x00000000, 0x00000000, 0x00000000,
    0x00000000, 0x00000000, 0x00000000, 0x00000000, 0x00000000, 0x00000000, 0x00000000, 0x00000000,
    0x00000000, 0x00000000, 0x00000000, 0x00000000, 0x00000000, 0x00000000, 0x00000000, 0x00000000,
    0x00000000, 0x00000000, 0x00000000, 0x00000000, 0x00000000, 0x00000000, 0x00000000, 0x00000000,
    0x00000000, 0x00000000, 0x00000000, 0x00000000, 0x00000000, 0x00000000, 0x00000000, 0x00000000,
    0x00000000, 0x00000000, 0x00000000, 0x00000000, 0x00000000, 0x00000000, 0x00000000, 0x00000000,
    0x00000000, 0x00000000, 0x00000000, 0x00000000, 0x00000000, 0x00000000, 0x00000000, 0x00000000,
    0x00000000, 0x00000000, 0x00000000, 0x00000000, 0x00000000, 0x00000000, 0x00000000, 0x00000000,
    0x00000000, 0x00000000, 0x00000000, 0x00000000, 0x00000000, 0x00000000, 0x00000000, 0x00000000,
    0x00000000, 0x00000000, 0x00000000, 0x00000000, 0x00000000, 0x00000000, 0x00000000, 0x00000000,
    0x00000000, 0x00000000, 0x00000000, 0x00000000, 0x00000000, 0x00000000, 0x00000000, 0x00000000,
    0x00000000, 0x00000000, 0x00000000, 0x00000000, 0x00000000, 0x00000000, 0x00000000, 0x00000000,
    0x00000000, 0x00000000, 0x00000000, 0x00000000, 0x00000000, 0x00000000, 0x00000000, 0x00000000,
    0x00000000, 0x00000000, 0x00000000, 0x00000000, 0x00000000, 0x00000000, 0x00000000, 0x00000000,
    0x00000000, 0x00000000, 0x00000000, 0x00000000, 0x00000000, 0x00000000, 0x00000000, 0x00000000,
    0x00000000, 0x00000000, 0x00000000, 0x00000000, 0x00000000, 0x00000000, 0x00000000, 0x00000000,
    0x00000000, 0x00000000, 0x00000000, 0x00000000, 0x00000000, 0x00000000, 0x00000000, 0x00000000,
    0x00000000, 0x00000000, 0x00000000, 0x00000000, 0x00000000, 0x00000000, 0x00000000, 0x00000000,
    0x00000000, 0x00000000, 0x00000000, 0x00000000, 0x00000000, 0x00000000, 0x00000000, 0x00000000,
    0x00000000, 0x00000000, 0x00000000, 0x00000000, 0x00000000, 0x00000000, 0x00000000, 0x00000000,
    0x00000000, 0x00000000, 0x00000000, 0x00000000, 0x00000000, 0x00000000, 0x00000000, 0x00000000,
    0x00000000, 0x00000000, 0x00000000, 0x00000000, 0x00000000, 0x00000000, 0x00000000, 0x00000000,
    0x00000000, 0x00000000, 0x00000000, 0x00000000, 0x00000000, 0x00000000, 0x00000000, 0x00000000,
    0x00000000, 0x00000000, 0x00000000, 0x00000000, 0x00000000, 0x00000000, 0x00000000, 0x00000000,
    0x00000000, 0x00000000, 0x00000000, 0x00000000, 0x00000000, 0x00000000, 0x00000000, 0x00000000,
    0x00000000, 0x00000000, 0x00000000, 0x00000000, 0x00000000, 0x00000000, 0x00000000, 0x00000000,
    0x00000000, 0x00000000, 0x00000000, 0x00000000, 0x00000000, 0x00000000, 0x00000000, 0x00000000,
    0x00000000, 0x00000000, 0x00000000, 0x00000000, 0x00000000, 0x00000000, 0x00000000, 0x00000000,
    0x00000000, 0x00000000, 0x00000000, 0x00000000, 0x00000000, 0x00000000, 0x00000000, 0x00000000,
    0x00000000, 0x00000000, 0x00000000, 0x00000000, 0x00000000, 0x00000000, 0x00000000, 0x00000000,
    0x00000000, 0x00000000, 0x00000000, 0x00000000, 0x00000000, 0x00000000, 0x00000000, 0x00000000,
    0x00000000, 0x00000000, 0x00000000, 0x00000000, 0x00000000, 0x00000000, 0x00000000, 0x00000000,
    0x00000000, 0x00000000, 0x00000000, 0x00000000, 0x00000000, 0x00000000, 0x00000000, 0x00000000,
    0x00000000, 0x00000000, 0x00000000, 0x00000000, 0x00000000, 0x00000000, 0x00000000, 0x00000000,
    0x00000000, 0x00000000, 0x00000000, 0x00000000, 0x00000000, 0x00000000, 0x00000000, 0x00000000,
    0x00000000, 0x00000000, 0x00000000, 0x00000000, 0x00000000, 0x00000000, 0x00000000, 0x00000000,
    0x00000000, 0x00000000, 0x00000000, 0x00000000, 0x00000000, 0x00000000, 0x00000000, 0x00000000,
    0x00000000, 0x00000000, 0x00000000, 0x00000000, 0x00000000, 0x00000000, 0x00000000, 0x00000000,
    0x00000000, 0x00000000, 0x00000000, 0x00000000, 0x00000000, 0x00000000, 0x00000000, 0x00000000,
    0x00000000, 0x00000000, 0x00000000, 0x00000000, 0x00000000, 0x00000000, 0x00000000, 0x00000000,
    0x00000000, 0x00000000, 0x00000000, 0x00000000, 0x00000000, 0x00000000, 0x00000000, 0x00000000,
    0x00000000, 0x00000000, 0x00000000, 0x00000000, 0x00000000, 0x00000000, 0x00000000, 0x00000000,
    0x00000000, 0x00000000, 0x00000000, 0x00000000, 0x00000000, 0x00000000, 0x00000000, 0x00000000,
    0x00000000, 0x00000000, 0x00000000, 0x00000000, 0x00000000, 0x00000000, 0x00000000, 0x00000000,
    0x00000000, 0x00000000, 0x00000000, 0x00000000, 0x00000000, 0x00000000, 0x00000000, 0x00000000,
    0x00000000, 0x00000000, 0x00000000, 0x00000000, 0x00000000, 0x00000000, 0x00000000, 0x00000000,
    0x00000000, 0x00000000, 0x00000000, 0x00000000, 0x00000000, 0x00000000, 0x00000000, 0x00000000,
    0x00000000, 0x00000000, 0x00000000, 0x00000000, 0x00000000, 0x00000000, 0x00000000, 0x00000000,
    0x00000000, 0x00000000, 0x00000000, 0x00000000, 0x00000000, 0x00000000, 0x00000000, 0x00000000,
    0x00000000, 0x00000000, 0x00000000, 0x00000000, 0x00000000, 0x00000000, 0x00000000, 0x00000000,
    0x00000000, 0x00000000, 0x00000000, 0x00000000, 0x00000000, 0x00000000, 0x00000000, 0x00000000,
    0x00000000, 0x00000000, 0x00000000, 0x00000000, 0x00000000, 0x00000000, 0x00000000, 0x00000000,
    0x00000000, 0x00000000, 0x00000000, 0x00000000, 0x00000000, 0x00000000, 0x00000000, 0x00000000,
    0x00000000, 0x00000000, 0x00000000, 0x00000000, 0x00000000, 0x00000000, 0x00000000, 0x00000000,
    0x00000000, 0x00000000, 0x00000000, 0x00000000, 0x00000000, 0x00000000, 0x00000000, 0x00000000,
    0x00000000, 0x00000000, 0x00000000, 0x00000000, 0x00000000, 0x00000000, 0x00000000, 0x00000000,
    0x00000000, 0x00000000, 0x00000000, 0x00000000, 0x00000000, 0x00000000, 0x00000000, 0x00000000,
    0x00000000, 0x00000000, 0x00000000, 0x00000000, 0x00000000, 0x00000000, 0x00000000, 0x00000000,
    0x00000000, 0x00000000, 0x00000000, 0x00000000, 0x00000000, 0x00000000, 0x00000000, 0x00000000,
    0x00000000, 0x00000000, 0x00000000, 0x00000000, 0x00000000, 0x00000000, 0x00000000, 0x00000000,
    0x00000000, 0x00000000, 0x00000000, 0x00000000, 0x00000000, 0x00000000, 0x00000000, 0x00000000,
    0x00000000, 0x00000000, 0x00000000, 0x00000000, 0x00000000, 0x00000000, 0x00000000, 0x00000000,
    0x00000000, 0x00000000, 0x00000000, 0x00000000, 0x00000000, 0x00000000, 0x00000000, 0x00000000,
    0x00000000, 0x00000000, 0x00000000, 0x00000000, 0x00000000, 0x00000000, 0x00000000, 0x00000000,
    0x00000000, 0x00000000, 0x00000000, 0x00000000, 0x00000000, 0x00000000, 0x00000000, 0x00000000,
    0x00000000, 0x00000000, 0x00000000, 0x00000000, 0x00000000, 0x00000000, 0x00000000, 0x00000000,
    0x00000000, 0x00000000, 0x00000000, 0x00000000, 0x00000000, 0x00000000, 0x00000000, 0x00000000,
    0x00000000, 0x00000000, 0x00000000, 0x00000000, 0x00000000, 0x00000000, 0x00000000, 0x00000000,
    0x00000000, 0x00000000, 0x00000000, 0x00000000, 0x00000000, 0x00000000, 0x00000000, 0x00000000,
    0x00000000, 0x00000000, 0x00000000, 0x00000000, 0x00000000, 0x00000000, 0x00000000, 0x00000000,
    0x00000000, 0x00000000, 0x00000000, 0x00000000, 0x00000000, 0x00000000, 0x00000000, 0x00000000,
    0x00000000, 0x00000000, 0x00000000, 0x00000000, 0x00000000, 0x00000000, 0x00000000, 0x00000000,
    0x00000000, 0x00000000, 0x00000000, 0x00000000, 0x00000000, 0x00000000, 0x00000000, 0x00000000,
    0x00000000, 0x00000000, 0x00000000, 0x00000000, 0x00000000, 0x00000000, 0x00000000, 0x00000000,
    0x00000000, 0x00000000, 0x00000000, 0x00000000, 0x00000000, 0x00000000, 0x00000000, 0x00000000,
    0x00000000, 0x00000000, 0x00000000, 0x00000000, 0x00000000, 0x00000000, 0x00000000, 0x00000000,
    0x00000000, 0x00000000, 0x00000000, 0x00000000, 0x00000000, 0x00000000, 0x00000000, 0x00000000,
    0x00000000, 0x00000000, 0x00000000, 0x00000000, 0x00000000, 0x00000000, 0x00000000, 0x00000000,
    0x00000000, 0x00000000, 0x00000000, 0x00000000, 0x00000000, 0x00000000, 0x00000000, 0x00000000,
    0x0e025a12, 0x0e025a02, 0x0e091012, 0x0e091002, 0x0e095812, 0x0e095802, 0x0e095512, 0x0e095502,
    0x0e0a2812, 0x0e0a2802, 0x0e1a1012, 0x0e1a1002, 0x0e1a5812, 0x0e1a5802, 0x0e1a5512, 0x0e1a5502,
    0x0e1a1c12, 0x0e1a1c02, 0x0e1a6012, 0x0e1a6002, 0x0e212412, 0x0e212402, 0x0e212312, 0x0e212302,
    0x0e216012, 0x0e216002, 0x0e216312, 0x0e216302, 0x0e212f12, 0x0e212f02, 0x0e231012, 0x0e231002,
    0x0e251712, 0x0e251702, 0x0e2c1012, 0x0e2c1002, 0x0e2c5812, 0x0e2c5802, 0x0e2c1312, 0x0e2c1302,
    0x0e2c1c12, 0x0e2c1c02, 0x0e2c6112, 0x0e2c6102, 0x0e326312, 0x0e326302, 0x0e321f12, 0x0e321f02,
    0x0e360e12, 0x0e360e02, 0x0e365812, 0x0e365802, 0x0e365512, 0x0e365502, 0x0e485812, 0x0e485802,
    0x0e486e12, 0x0e486e02, 0x0e485512, 0x0e485502, 0x0e486012, 0x0e486002, 0x0e510e12, 0x0e510e02,
    0x0e511012, 0x0e511002, 0x0e515812, 0x0e515802, 0x0e701012, 0x0e701002, 0x0e705812, 0x0e705802,
    0x0e705512, 0x0e705502, 0x0e706012, 0x0e706002, 0x0e7c2512, 0x0e7c2502, 0x0e7c2a12, 0x0e7c2a02,
    0x0e7c2412, 0x0e7c2402, 0x0e7c2312, 0x0e7c2302, 0x0e7e0e12, 0x0e7e0e02, 0x0e7e1012, 0x0e7e1002,
    0x0e8a1012, 0x0e8a1002, 0x0e8a5812, 0x0e8a5802, 0x0e8a6e12, 0x0e8a6e02, 0x0e8a5512, 0x0e8a5502,
    0x0e911012, 0x0e911002, 0x0e915812, 0x0e915802, 0x0e911d12, 0x0e911d02, 0x0e912212, 0x0e912202,
    0x0e916812, 0x0e916802, 0x0e991012, 0x0e991002, 0x0e995812, 0x0e995802, 0x0e995512, 0x0e995502,
    0x0e996012, 0x0e996002, 0x0e9f5912, 0x0e9f5902, 0x0e9f6312, 0x0e9f6302, 0x0e9f5a12, 0x0e9f5a02,
    0x0e9f2512, 0x0e9f2502, 0x0e9f2812, 0x0e9f2802, 0x0ea21912, 0x0ea21902, 0x0ea25812, 0x0ea25802,
    0x0ea40f12, 0x0ea40f02, 0x0ea40e12, 0x0ea40e02, 0x0ea41312, 0x0ea41302, 0x0ea41012, 0x0ea41002,
    0x0ea45812, 0x0ea45802, 0x0ea61012, 0x0ea61002, 0x0ea61312, 0x0ea61302, 0x0ea71012, 0x0ea71002,
    0x0ea91212, 0x0ea91202, 0x0ea95812, 0x0ea95802, 0x0ea95512, 0x0ea95502, 0x0e2c5502, 0x0e991302,
    0x0ea41a02, 0x0ea71a02, 0x0e026902, 0x00000000, 0x00000000, 0x00000000, 0x00000000, 0x00000000,
    0x0e025912, 0x0e025902, 0x0e024312, 0x0e024302, 0x0e021e12, 0x0e021e02, 0x0e021f12, 0x0e021f02,
    0x0e025512, 0x0e025502, 0x0e022912, 0x0e022902, 0x0e026a12, 0x0e026a02, 0x0e022112, 0x0e022102,
    0x0e022212, 0x0e022202, 0x0e025812, 0x0e025802, 0x0e022c12, 0x0e022c02, 0x0e026d12, 0x0e026d02,
    0x0e215812, 0x0e215802, 0x0e214312, 0x0e214302, 0x0e211912, 0x0e211902, 0x0e211e12, 0x0e211e02,
    0x0e211f12, 0x0e211f02, 0x0e215512, 0x0e215502, 0x0e212912, 0x0e212902, 0x0e216a12, 0x0e216a02,
    0x0e324312, 0x0e324302, 0x0e325812, 0x0e325802, 0x0e7c5812, 0x0e7c5802, 0x0e7c4312, 0x0e7c4302,
    0x0e7c1e12, 0x0e7c1e02, 0x0e7c1f12, 0x0e7c1f02, 0x0e7c5512, 0x0e7c5502, 0x0e7c2912, 0x0e7c2902,
    0x0e7c6a12, 0x0e7c6a02, 0x0e7c6012, 0x0e7c6002, 0x0e7c6112, 0x0e7c6102, 0x0e7c9512, 0x0e7c9502,
    0x0e7c6912, 0x0e7c6902, 0x0e7caa12, 0x0e7caa02, 0x0e9f5812, 0x0e9f5802, 0x0e9f4312, 0x0e9f4302,
    0x0e9f6012, 0x0e9f6002, 0x0e9f6112, 0x0e9f6102, 0x0e9f9512, 0x0e9f9502, 0x0e9f6912, 0x0e9f6902,
    0x0e9faa12, 0x0e9faa02, 0x0ea70f12, 0x0ea70f02, 0x0ea75812, 0x0ea75802, 0x0ea74412, 0x0ea74402,
